unsigned char gesture_model_tflite[] = {
  0x1c, 0x00, 0x00, 0x00, 0x54, 0x46, 0x4c, 0x33, 0x14, 0x00, 0x20, 0x00,
  0x1c, 0x00, 0x18, 0x00, 0x14, 0x00, 0x10, 0x00, 0x0c, 0x00, 0x00, 0x00,
  0x08, 0x00, 0x04, 0x00, 0x14, 0x00, 0x00, 0x00, 0x1c, 0x00, 0x00, 0x00,
  0x88, 0x00, 0x00, 0x00, 0xe0, 0x00, 0x00, 0x00, 0x94, 0x05, 0x00, 0x00,
  0xa4, 0x05, 0x00, 0x00, 0x5c, 0x09, 0x00, 0x00, 0x03, 0x00, 0x00, 0x00,
  0x01, 0x00, 0x00, 0x00, 0x04, 0x00, 0x00, 0x00, 0x22, 0xfa, 0xff, 0xff,
  0x0c, 0x00, 0x00, 0x00, 0x1c, 0x00, 0x00, 0x00, 0x38, 0x00, 0x00, 0x00,
  0x0f, 0x00, 0x00, 0x00, 0x73, 0x65, 0x72, 0x76, 0x69, 0x6e, 0x67, 0x5f,
  0x64, 0x65, 0x66, 0x61, 0x75, 0x6c, 0x74, 0x00, 0x01, 0x00, 0x00, 0x00,
  0x04, 0x00, 0x00, 0x00, 0x94, 0xff, 0xff, 0xff, 0x06, 0x00, 0x00, 0x00,
  0x04, 0x00, 0x00, 0x00, 0x05, 0x00, 0x00, 0x00, 0x64, 0x65, 0x6e, 0x73,
  0x65, 0x00, 0x00, 0x00, 0x01, 0x00, 0x00, 0x00, 0x04, 0x00, 0x00, 0x00,
  0xee, 0xfa, 0xff, 0xff, 0x04, 0x00, 0x00, 0x00, 0x0d, 0x00, 0x00, 0x00,
  0x66, 0x6c, 0x61, 0x74, 0x74, 0x65, 0x6e, 0x5f, 0x69, 0x6e, 0x70, 0x75,
  0x74, 0x00, 0x00, 0x00, 0x02, 0x00, 0x00, 0x00, 0x34, 0x00, 0x00, 0x00,
  0x04, 0x00, 0x00, 0x00, 0xdc, 0xff, 0xff, 0xff, 0x09, 0x00, 0x00, 0x00,
  0x04, 0x00, 0x00, 0x00, 0x13, 0x00, 0x00, 0x00, 0x43, 0x4f, 0x4e, 0x56,
  0x45, 0x52, 0x53, 0x49, 0x4f, 0x4e, 0x5f, 0x4d, 0x45, 0x54, 0x41, 0x44,
  0x41, 0x54, 0x41, 0x00, 0x08, 0x00, 0x0c, 0x00, 0x08, 0x00, 0x04, 0x00,
  0x08, 0x00, 0x00, 0x00, 0x08, 0x00, 0x00, 0x00, 0x04, 0x00, 0x00, 0x00,
  0x13, 0x00, 0x00, 0x00, 0x6d, 0x69, 0x6e, 0x5f, 0x72, 0x75, 0x6e, 0x74,
  0x69, 0x6d, 0x65, 0x5f, 0x76, 0x65, 0x72, 0x73, 0x69, 0x6f, 0x6e, 0x00,
  0x0a, 0x00, 0x00, 0x00, 0xb0, 0x04, 0x00, 0x00, 0xa8, 0x04, 0x00, 0x00,
  0x94, 0x04, 0x00, 0x00, 0x74, 0x04, 0x00, 0x00, 0xa4, 0x00, 0x00, 0x00,
  0x9c, 0x00, 0x00, 0x00, 0x94, 0x00, 0x00, 0x00, 0x8c, 0x00, 0x00, 0x00,
  0x6c, 0x00, 0x00, 0x00, 0x04, 0x00, 0x00, 0x00, 0x92, 0xfb, 0xff, 0xff,
  0x04, 0x00, 0x00, 0x00, 0x58, 0x00, 0x00, 0x00, 0x0c, 0x00, 0x00, 0x00,
  0x08, 0x00, 0x0e, 0x00, 0x08, 0x00, 0x04, 0x00, 0x08, 0x00, 0x00, 0x00,
  0x10, 0x00, 0x00, 0x00, 0x28, 0x00, 0x00, 0x00, 0x00, 0x00, 0x06, 0x00,
  0x08, 0x00, 0x04, 0x00, 0x06, 0x00, 0x00, 0x00, 0x04, 0x00, 0x00, 0x00,
  0x01, 0x00, 0x00, 0x00, 0xea, 0x03, 0x00, 0x00, 0x00, 0x00, 0x0a, 0x00,
  0x10, 0x00, 0x0c, 0x00, 0x08, 0x00, 0x04, 0x00, 0x0a, 0x00, 0x00, 0x00,
  0x02, 0x00, 0x00, 0x00, 0x02, 0x00, 0x00, 0x00, 0x04, 0x00, 0x00, 0x00,
  0x06, 0x00, 0x00, 0x00, 0x32, 0x2e, 0x31, 0x32, 0x2e, 0x30, 0x00, 0x00,
  0xf6, 0xfb, 0xff, 0xff, 0x04, 0x00, 0x00, 0x00, 0x10, 0x00, 0x00, 0x00,
  0x31, 0x2e, 0x31, 0x34, 0x2e, 0x30, 0x00, 0x00, 0x00, 0x00, 0x00, 0x00,
  0x00, 0x00, 0x00, 0x00, 0x5c, 0xf8, 0xff, 0xff, 0x60, 0xf8, 0xff, 0xff,
  0x64, 0xf8, 0xff, 0xff, 0x1e, 0xfc, 0xff, 0xff, 0x04, 0x00, 0x00, 0x00,
  0xc0, 0x03, 0x00, 0x00, 0x99, 0x1f, 0x1e, 0x3e, 0xa6, 0x52, 0x28, 0x3d,
  0x55, 0xc7, 0xd0, 0x3d, 0xb3, 0x6d, 0xb3, 0x3d, 0x47, 0xc7, 0xb4, 0xbd,
  0x3c, 0xd4, 0x73, 0x3d, 0xe5, 0x6e, 0x09, 0x3e, 0xdc, 0x29, 0x9a, 0x3d,
  0xc0, 0x03, 0x09, 0x3e, 0x02, 0x12, 0xa3, 0x3d, 0xea, 0x36, 0x3b, 0xbd,
  0xb7, 0x01, 0xc2, 0x3d, 0xf8, 0x5a, 0xa7, 0x3d, 0xb0, 0xd2, 0xef, 0xbd,
  0xb2, 0xa2, 0x42, 0xbd, 0xf2, 0x08, 0x36, 0x3d, 0x0f, 0x61, 0xd8, 0xbd,
  0xdd, 0xd9, 0xd9, 0x3c, 0x52, 0x95, 0x94, 0xbc, 0x1b, 0x24, 0x0b, 0xbe,
  0x67, 0x0b, 0x32, 0x3d, 0x2f, 0x87, 0x55, 0xbd, 0xf3, 0x20, 0xda, 0xbd,
  0xe0, 0xfa, 0x91, 0x3d, 0x16, 0xe9, 0x1a, 0x3d, 0xd5, 0x17, 0xd3, 0x3d,
  0x49, 0x2e, 0xc7, 0x3d, 0x08, 0x59, 0x07, 0xbc, 0x7a, 0x19, 0x18, 0x3d,
  0xb8, 0xa5, 0x06, 0xbe, 0x8e, 0x2c, 0x15, 0x3c, 0xc9, 0x8d, 0x09, 0xbe,
  0x31, 0xb2, 0x8a, 0xbd, 0xe0, 0x12, 0x8b, 0xbd, 0x42, 0x2f, 0x76, 0x3d,
  0x9a, 0x12, 0xdc, 0x3d, 0x8b, 0x7a, 0xe9, 0x3d, 0xe7, 0x79, 0x2b, 0x3e,
  0x01, 0x12, 0xac, 0xbc, 0x38, 0x34, 0xbd, 0x3d, 0x6f, 0x83, 0xa7, 0x3d,
  0xba, 0x7a, 0x2c, 0x3d, 0xd0, 0x33, 0x2f, 0xbd, 0xe2, 0xc8, 0xb1, 0x3c,
  0x63, 0x06, 0xdb, 0xbd, 0xaf, 0x64, 0x27, 0x3d, 0x10, 0x7b, 0x9d, 0x3d,
  0xac, 0x9d, 0xd5, 0x3c, 0x38, 0x48, 0x25, 0x3d, 0x5d, 0x31, 0xa7, 0xbc,
  0x37, 0x75, 0x67, 0xbd, 0xe8, 0x12, 0x64, 0xbd, 0xa0, 0x07, 0xa0, 0xbd,
  0xa3, 0x90, 0x26, 0x3d, 0xe0, 0xbe, 0x2e, 0x3d, 0x82, 0xeb, 0x10, 0xbd,
  0x10, 0x86, 0x0c, 0xbd, 0x23, 0xec, 0x27, 0x3e, 0x2e, 0x62, 0xd3, 0x3d,
  0x8c, 0xf6, 0x60, 0xbd, 0x90, 0x0a, 0x49, 0x3d, 0x91, 0x9b, 0xe1, 0xbc,
  0x7e, 0x64, 0xed, 0x3d, 0x22, 0x08, 0xb5, 0x3d, 0x3e, 0x5a, 0x40, 0xbc,
  0x88, 0x82, 0xa3, 0xbd, 0xde, 0x40, 0xd3, 0x3d, 0xa7, 0x06, 0x14, 0x3d,
  0x99, 0x72, 0x3f, 0x3d, 0x5e, 0x25, 0xa7, 0xbd, 0x5d, 0x19, 0xfc, 0xbd,
  0x86, 0x5d, 0xec, 0xbd, 0xea, 0x5b, 0x24, 0xbd, 0xab, 0x03, 0xab, 0x3d,
  0xb7, 0xd8, 0xe1, 0xbd, 0xf6, 0x1f, 0xe6, 0xbd, 0x02, 0x0c, 0x24, 0x3e,
  0x7f, 0xc7, 0xc6, 0x3d, 0x0d, 0xbd, 0xcf, 0x3d, 0x99, 0xb3, 0xef, 0x3d,
  0x06, 0xbf, 0xe1, 0x3d, 0x80, 0x17, 0x18, 0xbc, 0x58, 0xde, 0xb8, 0xbd,
  0x1d, 0x67, 0x05, 0xbe, 0x83, 0x77, 0xc7, 0xbd, 0x5d, 0x62, 0x56, 0xbd,
  0x4c, 0x8e, 0x05, 0x3d, 0x10, 0x27, 0xc3, 0xbd, 0xfe, 0x0f, 0xf6, 0xbd,
  0x70, 0x57, 0x5c, 0x3d, 0x23, 0x92, 0xb9, 0xbd, 0x0e, 0x4a, 0x12, 0xbd,
  0x73, 0x0d, 0x0e, 0xbe, 0xd5, 0x94, 0x09, 0xbe, 0x74, 0x2f, 0xaf, 0xbc,
  0x8c, 0x01, 0xdf, 0xbc, 0x58, 0xb4, 0x04, 0xbd, 0xd7, 0xee, 0x58, 0xbd,
  0xc4, 0x73, 0x29, 0xbd, 0xf4, 0x74, 0x7f, 0x3d, 0x7f, 0x50, 0xa8, 0x3d,
  0xde, 0x76, 0xf2, 0x3c, 0x9c, 0x0a, 0xe2, 0xbd, 0x31, 0x1a, 0x1b, 0xbe,
  0xdf, 0x0b, 0xdd, 0x3c, 0x0f, 0x69, 0xa0, 0x3a, 0x6b, 0x95, 0xc7, 0xbd,
  0x80, 0x1c, 0xce, 0xbd, 0xcf, 0x73, 0x1b, 0xbe, 0x98, 0xef, 0xd4, 0x3d,
  0x32, 0x1c, 0x02, 0xbe, 0x15, 0xfd, 0xf4, 0xbc, 0x61, 0xdf, 0xf0, 0x3d,
  0xc3, 0xfe, 0xfc, 0xbd, 0x22, 0xcd, 0xb0, 0x3d, 0xc9, 0x02, 0xb6, 0xbd,
  0xb2, 0xba, 0x16, 0xbd, 0x28, 0x50, 0x02, 0xbe, 0xb0, 0xca, 0xbd, 0x39,
  0x21, 0x01, 0x8c, 0x3d, 0x7a, 0x59, 0x23, 0xbe, 0x4a, 0xc2, 0x6f, 0x3c,
  0x83, 0x42, 0xc4, 0x3d, 0xa2, 0x10, 0x52, 0xbd, 0x42, 0xe8, 0x15, 0x3c,
  0x09, 0xff, 0xb8, 0x3d, 0xfb, 0x75, 0x09, 0x3e, 0x16, 0x84, 0xa8, 0xbd,
  0x16, 0xd3, 0x37, 0xbd, 0xc5, 0x89, 0xe4, 0x3d, 0x65, 0x9d, 0x0e, 0x3c,
  0x00, 0x9e, 0xd3, 0x3d, 0x38, 0x1a, 0xb0, 0xbd, 0x16, 0x1b, 0x71, 0x3d,
  0x84, 0x96, 0x24, 0x3e, 0xa1, 0x6e, 0xa2, 0x3d, 0x0b, 0x43, 0x9c, 0xbc,
  0x0b, 0x6f, 0x98, 0xbd, 0xa8, 0xd6, 0xf3, 0xbd, 0x1b, 0xee, 0xca, 0x3d,
  0xf3, 0x4f, 0x0b, 0xbc, 0x75, 0x9b, 0x38, 0x3d, 0x92, 0x54, 0xe3, 0x3c,
  0x9f, 0xbb, 0x72, 0x3c, 0x05, 0x8f, 0x33, 0xbb, 0x3e, 0x45, 0x84, 0xbc,
  0xbd, 0x42, 0x98, 0x3c, 0x4b, 0xc2, 0xd0, 0x3d, 0xde, 0x64, 0x85, 0x3c,
  0x10, 0xd7, 0x34, 0xbc, 0xf2, 0x03, 0x66, 0xbd, 0xe1, 0xee, 0x38, 0xbd,
  0x57, 0xd7, 0xf0, 0xbd, 0xb3, 0xd3, 0x1b, 0xbe, 0xf7, 0xd7, 0xe3, 0xbd,
  0x30, 0xa7, 0x05, 0x3e, 0xdf, 0x64, 0xd4, 0xbd, 0xb0, 0x36, 0x86, 0x3d,
  0x9a, 0xe5, 0x52, 0x3d, 0x0f, 0x6e, 0xbb, 0xbd, 0x61, 0xaa, 0xcb, 0x3d,
  0x63, 0xab, 0x76, 0xbd, 0x20, 0x24, 0xb8, 0x3d, 0x53, 0x8f, 0xf2, 0x3d,
  0x43, 0x9c, 0x6e, 0xbd, 0xe5, 0x36, 0x77, 0x3c, 0xb4, 0x49, 0xd0, 0xbd,
  0xe8, 0x24, 0x0c, 0xbb, 0xe9, 0x21, 0x88, 0xbd, 0xd2, 0x25, 0x08, 0x3e,
  0xc5, 0x9b, 0x20, 0x3e, 0x40, 0xae, 0xf1, 0x3d, 0x4c, 0x39, 0x80, 0x3d,
  0xec, 0xaa, 0x2c, 0x3e, 0x82, 0xba, 0xf1, 0x3d, 0x49, 0xf6, 0x0b, 0xbe,
  0x01, 0xa4, 0x33, 0x3e, 0x6c, 0x9a, 0x0c, 0xbe, 0x74, 0xf9, 0x13, 0xbe,
  0x3c, 0xf1, 0x7b, 0x3d, 0xdd, 0x73, 0xb7, 0xbd, 0xa2, 0x3c, 0x0b, 0x3b,
  0xfb, 0x51, 0x26, 0x3d, 0x00, 0xa7, 0x04, 0x3e, 0xfa, 0x15, 0x56, 0xbd,
  0xa5, 0x0a, 0x81, 0xbd, 0xde, 0x51, 0x93, 0xbd, 0xc3, 0x43, 0xb5, 0x3c,
  0x31, 0xf9, 0x35, 0x3e, 0x60, 0x57, 0xc9, 0xbd, 0xe5, 0xa9, 0x5b, 0xbd,
  0x12, 0xdb, 0xd8, 0xbd, 0x69, 0x4c, 0x26, 0x3e, 0x2f, 0x87, 0x33, 0xbe,
  0xcc, 0x24, 0x1f, 0xbd, 0x43, 0xde, 0x0a, 0xbd, 0x60, 0x79, 0xe2, 0x3d,
  0xf8, 0x23, 0x54, 0xbc, 0xfc, 0x33, 0xb6, 0xbd, 0x2a, 0x8a, 0xc6, 0x3d,
  0x0f, 0xf1, 0xf2, 0xbc, 0xc0, 0xc9, 0xe9, 0xbb, 0x6d, 0x34, 0xb8, 0x3d,
  0xdd, 0x90, 0x0f, 0xbd, 0x75, 0x58, 0xc9, 0xbd, 0x59, 0xfe, 0x95, 0x3b,
  0x69, 0x73, 0x08, 0xbd, 0xe5, 0x9f, 0x17, 0xbe, 0x2b, 0x2f, 0xc4, 0x3d,
  0xcc, 0x3d, 0xfb, 0x3c, 0x20, 0x3a, 0x03, 0xbe, 0x38, 0x5f, 0x04, 0x3e,
  0x35, 0x5a, 0xf5, 0x3d, 0xf9, 0x65, 0xb4, 0x3d, 0xd4, 0x34, 0xcc, 0xbd,
  0xc6, 0x1f, 0xcd, 0xbd, 0x05, 0x8f, 0x07, 0x3e, 0xb1, 0x2b, 0x00, 0x3e,
  0xb1, 0xaa, 0x2b, 0x3d, 0x74, 0xd8, 0x55, 0xbd, 0x0e, 0xbd, 0x13, 0x3e,
  0x3b, 0xbd, 0x01, 0xbc, 0xdb, 0x44, 0x9e, 0x3d, 0x8c, 0x4b, 0x8c, 0x3b,
  0xa9, 0x62, 0x78, 0xbc, 0x5e, 0x2b, 0xe0, 0xbd, 0x9a, 0xec, 0x17, 0xbe,
  0x1a, 0xd0, 0x06, 0xbe, 0x4d, 0x52, 0x2b, 0xbd, 0xe7, 0xcf, 0x7d, 0x3d,
  0xb5, 0x1f, 0xc1, 0x3d, 0x39, 0x1b, 0xf0, 0x3c, 0xbc, 0x97, 0x14, 0xbd,
  0xd4, 0xe9, 0x99, 0xbc, 0x1b, 0x0a, 0x28, 0x3e, 0xe6, 0x8d, 0xe5, 0x3d,
  0x31, 0x40, 0x3d, 0x3c, 0xec, 0xb4, 0x60, 0x3c, 0xcb, 0xd1, 0x95, 0xbd,
  0x3e, 0x76, 0x1e, 0x3d, 0xea, 0xff, 0xff, 0xff, 0x04, 0x00, 0x00, 0x00,
  0x08, 0x00, 0x00, 0x00, 0xff, 0xff, 0xff, 0xff, 0xf0, 0x00, 0x00, 0x00,
  0x00, 0x00, 0x06, 0x00, 0x08, 0x00, 0x04, 0x00, 0x06, 0x00, 0x00, 0x00,
  0x04, 0x00, 0x00, 0x00, 0x04, 0x00, 0x00, 0x00, 0x09, 0x07, 0x9c, 0x3a,
  0x60, 0xfc, 0xff, 0xff, 0x64, 0xfc, 0xff, 0xff, 0x0f, 0x00, 0x00, 0x00,
  0x4d, 0x4c, 0x49, 0x52, 0x20, 0x43, 0x6f, 0x6e, 0x76, 0x65, 0x72, 0x74,
  0x65, 0x64, 0x2e, 0x00, 0x01, 0x00, 0x00, 0x00, 0x14, 0x00, 0x00, 0x00,
  0x00, 0x00, 0x0e, 0x00, 0x18, 0x00, 0x14, 0x00, 0x10, 0x00, 0x0c, 0x00,
  0x08, 0x00, 0x04, 0x00, 0x0e, 0x00, 0x00, 0x00, 0x14, 0x00, 0x00, 0x00,
  0x1c, 0x00, 0x00, 0x00, 0xc4, 0x00, 0x00, 0x00, 0xc8, 0x00, 0x00, 0x00,
  0xcc, 0x00, 0x00, 0x00, 0x04, 0x00, 0x00, 0x00, 0x6d, 0x61, 0x69, 0x6e,
  0x00, 0x00, 0x00, 0x00, 0x03, 0x00, 0x00, 0x00, 0x88, 0x00, 0x00, 0x00,
  0x44, 0x00, 0x00, 0x00, 0x10, 0x00, 0x00, 0x00, 0x00, 0x00, 0x0a, 0x00,
  0x10, 0x00, 0x0c, 0x00, 0x08, 0x00, 0x04, 0x00, 0x0a, 0x00, 0x00, 0x00,
  0x0c, 0x00, 0x00, 0x00, 0x10, 0x00, 0x00, 0x00, 0x02, 0x00, 0x00, 0x00,
  0x01, 0x00, 0x00, 0x00, 0x06, 0x00, 0x00, 0x00, 0x01, 0x00, 0x00, 0x00,
  0x05, 0x00, 0x00, 0x00, 0x00, 0x00, 0x0e, 0x00, 0x18, 0x00, 0x14, 0x00,
  0x10, 0x00, 0x0c, 0x00, 0x0b, 0x00, 0x04, 0x00, 0x0e, 0x00, 0x00, 0x00,
  0x14, 0x00, 0x00, 0x00, 0x00, 0x00, 0x00, 0x08, 0x10, 0x00, 0x00, 0x00,
  0x14, 0x00, 0x00, 0x00, 0x01, 0x00, 0x00, 0x00, 0x1c, 0xfd, 0xff, 0xff,
  0x01, 0x00, 0x00, 0x00, 0x05, 0x00, 0x00, 0x00, 0x03, 0x00, 0x00, 0x00,
  0x04, 0x00, 0x00, 0x00, 0x03, 0x00, 0x00, 0x00, 0x01, 0x00, 0x00, 0x00,
  0x00, 0x00, 0x0a, 0x00, 0x0c, 0x00, 0x00, 0x00, 0x08, 0x00, 0x04, 0x00,
  0x0a, 0x00, 0x00, 0x00, 0x08, 0x00, 0x00, 0x00, 0x0c, 0x00, 0x00, 0x00,
  0x01, 0x00, 0x00, 0x00, 0x04, 0x00, 0x00, 0x00, 0x02, 0x00, 0x00, 0x00,
  0x00, 0x00, 0x00, 0x00, 0x02, 0x00, 0x00, 0x00, 0x01, 0x00, 0x00, 0x00,
  0x06, 0x00, 0x00, 0x00, 0x01, 0x00, 0x00, 0x00, 0x00, 0x00, 0x00, 0x00,
  0x07, 0x00, 0x00, 0x00, 0x60, 0x02, 0x00, 0x00, 0xf4, 0x01, 0x00, 0x00,
  0x90, 0x01, 0x00, 0x00, 0x30, 0x01, 0x00, 0x00, 0xd4, 0x00, 0x00, 0x00,
  0x60, 0x00, 0x00, 0x00, 0x04, 0x00, 0x00, 0x00, 0xd2, 0xfd, 0xff, 0xff,
  0x00, 0x00, 0x00, 0x01, 0x14, 0x00, 0x00, 0x00, 0x1c, 0x00, 0x00, 0x00,
  0x1c, 0x00, 0x00, 0x00, 0x07, 0x00, 0x00, 0x00, 0x34, 0x00, 0x00, 0x00,
  0x02, 0x00, 0x00, 0x00, 0xff, 0xff, 0xff, 0xff, 0x01, 0x00, 0x00, 0x00,
  0xbc, 0xfd, 0xff, 0xff, 0x19, 0x00, 0x00, 0x00, 0x53, 0x74, 0x61, 0x74,
  0x65, 0x66, 0x75, 0x6c, 0x50, 0x61, 0x72, 0x74, 0x69, 0x74, 0x69, 0x6f,
  0x6e, 0x65, 0x64, 0x43, 0x61, 0x6c, 0x6c, 0x3a, 0x30, 0x00, 0x00, 0x00,
  0x02, 0x00, 0x00, 0x00, 0x01, 0x00, 0x00, 0x00, 0x01, 0x00, 0x00, 0x00,
  0x2a, 0xfe, 0xff, 0xff, 0x00, 0x00, 0x00, 0x01, 0x14, 0x00, 0x00, 0x00,
  0x1c, 0x00, 0x00, 0x00, 0x1c, 0x00, 0x00, 0x00, 0x06, 0x00, 0x00, 0x00,
  0x4c, 0x00, 0x00, 0x00, 0x02, 0x00, 0x00, 0x00, 0xff, 0xff, 0xff, 0xff,
  0x01, 0x00, 0x00, 0x00, 0x14, 0xfe, 0xff, 0xff, 0x30, 0x00, 0x00, 0x00,
  0x73, 0x65, 0x71, 0x75, 0x65, 0x6e, 0x74, 0x69, 0x61, 0x6c, 0x2f, 0x64,
  0x65, 0x6e, 0x73, 0x65, 0x2f, 0x4d, 0x61, 0x74, 0x4d, 0x75, 0x6c, 0x3b,
  0x73, 0x65, 0x71, 0x75, 0x65, 0x6e, 0x74, 0x69, 0x61, 0x6c, 0x2f, 0x64,
  0x65, 0x6e, 0x73, 0x65, 0x2f, 0x42, 0x69, 0x61, 0x73, 0x41, 0x64, 0x64,
  0x00, 0x00, 0x00, 0x00, 0x02, 0x00, 0x00, 0x00, 0x01, 0x00, 0x00, 0x00,
  0x01, 0x00, 0x00, 0x00, 0x9a, 0xfe, 0xff, 0xff, 0x00, 0x00, 0x00, 0x01,
  0x14, 0x00, 0x00, 0x00, 0x1c, 0x00, 0x00, 0x00, 0x1c, 0x00, 0x00, 0x00,
  0x05, 0x00, 0x00, 0x00, 0x34, 0x00, 0x00, 0x00, 0x02, 0x00, 0x00, 0x00,
  0xff, 0xff, 0xff, 0xff, 0xf0, 0x00, 0x00, 0x00, 0x84, 0xfe, 0xff, 0xff,
  0x1a, 0x00, 0x00, 0x00, 0x73, 0x65, 0x71, 0x75, 0x65, 0x6e, 0x74, 0x69,
  0x61, 0x6c, 0x2f, 0x66, 0x6c, 0x61, 0x74, 0x74, 0x65, 0x6e, 0x2f, 0x52,
  0x65, 0x73, 0x68, 0x61, 0x70, 0x65, 0x00, 0x00, 0x02, 0x00, 0x00, 0x00,
  0x01, 0x00, 0x00, 0x00, 0xf0, 0x00, 0x00, 0x00, 0x5a, 0xff, 0xff, 0xff,
  0x00, 0x00, 0x00, 0x01, 0x10, 0x00, 0x00, 0x00, 0x10, 0x00, 0x00, 0x00,
  0x04, 0x00, 0x00, 0x00, 0x24, 0x00, 0x00, 0x00, 0xcc, 0xfe, 0xff, 0xff,
  0x17, 0x00, 0x00, 0x00, 0x73, 0x65, 0x71, 0x75, 0x65, 0x6e, 0x74, 0x69,
  0x61, 0x6c, 0x2f, 0x64, 0x65, 0x6e, 0x73, 0x65, 0x2f, 0x4d, 0x61, 0x74,
  0x4d, 0x75, 0x6c, 0x00, 0x02, 0x00, 0x00, 0x00, 0x01, 0x00, 0x00, 0x00,
  0xf0, 0x00, 0x00, 0x00, 0x00, 0x00, 0x16, 0x00, 0x1c, 0x00, 0x18, 0x00,
  0x17, 0x00, 0x10, 0x00, 0x0c, 0x00, 0x08, 0x00, 0x00, 0x00, 0x00, 0x00,
  0x00, 0x00, 0x07, 0x00, 0x16, 0x00, 0x00, 0x00, 0x00, 0x00, 0x00, 0x01,
  0x14, 0x00, 0x00, 0x00, 0x14, 0x00, 0x00, 0x00, 0x03, 0x00, 0x00, 0x00,
  0x00, 0x00, 0x00, 0x02, 0x28, 0x00, 0x00, 0x00, 0x2c, 0xff, 0xff, 0xff,
  0x18, 0x00, 0x00, 0x00, 0x73, 0x65, 0x71, 0x75, 0x65, 0x6e, 0x74, 0x69,
  0x61, 0x6c, 0x2f, 0x66, 0x6c, 0x61, 0x74, 0x74, 0x65, 0x6e, 0x2f, 0x43,
  0x6f, 0x6e, 0x73, 0x74, 0x00, 0x00, 0x00, 0x00, 0x01, 0x00, 0x00, 0x00,
  0x02, 0x00, 0x00, 0x00, 0x00, 0x00, 0x16, 0x00, 0x18, 0x00, 0x14, 0x00,
  0x00, 0x00, 0x10, 0x00, 0x0c, 0x00, 0x08, 0x00, 0x00, 0x00, 0x00, 0x00,
  0x00, 0x00, 0x07, 0x00, 0x16, 0x00, 0x00, 0x00, 0x00, 0x00, 0x00, 0x01,
  0x10, 0x00, 0x00, 0x00, 0x10, 0x00, 0x00, 0x00, 0x02, 0x00, 0x00, 0x00,
  0x34, 0x00, 0x00, 0x00, 0x88, 0xff, 0xff, 0xff, 0x27, 0x00, 0x00, 0x00,
  0x73, 0x65, 0x71, 0x75, 0x65, 0x6e, 0x74, 0x69, 0x61, 0x6c, 0x2f, 0x64,
  0x65, 0x6e, 0x73, 0x65, 0x2f, 0x42, 0x69, 0x61, 0x73, 0x41, 0x64, 0x64,
  0x2f, 0x52, 0x65, 0x61, 0x64, 0x56, 0x61, 0x72, 0x69, 0x61, 0x62, 0x6c,
  0x65, 0x4f, 0x70, 0x00, 0x01, 0x00, 0x00, 0x00, 0x01, 0x00, 0x00, 0x00,
  0x00, 0x00, 0x16, 0x00, 0x1c, 0x00, 0x18, 0x00, 0x00, 0x00, 0x14, 0x00,
  0x10, 0x00, 0x0c, 0x00, 0x00, 0x00, 0x00, 0x00, 0x08, 0x00, 0x07, 0x00,
  0x16, 0x00, 0x00, 0x00, 0x00, 0x00, 0x00, 0x01, 0x14, 0x00, 0x00, 0x00,
  0x20, 0x00, 0x00, 0x00, 0x20, 0x00, 0x00, 0x00, 0x01, 0x00, 0x00, 0x00,
  0x3c, 0x00, 0x00, 0x00, 0x02, 0x00, 0x00, 0x00, 0xff, 0xff, 0xff, 0xff,
  0xf0, 0x00, 0x00, 0x00, 0x04, 0x00, 0x04, 0x00, 0x04, 0x00, 0x00, 0x00,
  0x1f, 0x00, 0x00, 0x00, 0x73, 0x65, 0x72, 0x76, 0x69, 0x6e, 0x67, 0x5f,
  0x64, 0x65, 0x66, 0x61, 0x75, 0x6c, 0x74, 0x5f, 0x66, 0x6c, 0x61, 0x74,
  0x74, 0x65, 0x6e, 0x5f, 0x69, 0x6e, 0x70, 0x75, 0x74, 0x3a, 0x30, 0x00,
  0x02, 0x00, 0x00, 0x00, 0x01, 0x00, 0x00, 0x00, 0xf0, 0x00, 0x00, 0x00,
  0x03, 0x00, 0x00, 0x00, 0x30, 0x00, 0x00, 0x00, 0x14, 0x00, 0x00, 0x00,
  0x04, 0x00, 0x00, 0x00, 0xe8, 0xff, 0xff, 0xff, 0x0e, 0x00, 0x00, 0x00,
  0x00, 0x00, 0x00, 0x0e, 0xf4, 0xff, 0xff, 0xff, 0x09, 0x00, 0x00, 0x00,
  0x00, 0x00, 0x00, 0x09, 0x0c, 0x00, 0x0c, 0x00, 0x0b, 0x00, 0x00, 0x00,
  0x00, 0x00, 0x04, 0x00, 0x0c, 0x00, 0x00, 0x00, 0x16, 0x00, 0x00, 0x00,
  0x00, 0x00, 0x00, 0x16
};
unsigned int gesture_model_tflite_len = 2512;
