unsigned char gesture_model_tflite[] = {
  0x1c, 0x00, 0x00, 0x00, 0x54, 0x46, 0x4c, 0x33, 0x14, 0x00, 0x20, 0x00,
  0x1c, 0x00, 0x18, 0x00, 0x14, 0x00, 0x10, 0x00, 0x0c, 0x00, 0x00, 0x00,
  0x08, 0x00, 0x04, 0x00, 0x14, 0x00, 0x00, 0x00, 0x1c, 0x00, 0x00, 0x00,
  0x94, 0x00, 0x00, 0x00, 0xec, 0x00, 0x00, 0x00, 0x50, 0x0a, 0x00, 0x00,
  0x60, 0x0a, 0x00, 0x00, 0xe4, 0x0e, 0x00, 0x00, 0x03, 0x00, 0x00, 0x00,
  0x01, 0x00, 0x00, 0x00, 0x10, 0x00, 0x00, 0x00, 0x00, 0x00, 0x0a, 0x00,
  0x10, 0x00, 0x0c, 0x00, 0x08, 0x00, 0x04, 0x00, 0x0a, 0x00, 0x00, 0x00,
  0x0c, 0x00, 0x00, 0x00, 0x1c, 0x00, 0x00, 0x00, 0x38, 0x00, 0x00, 0x00,
  0x0f, 0x00, 0x00, 0x00, 0x73, 0x65, 0x72, 0x76, 0x69, 0x6e, 0x67, 0x5f,
  0x64, 0x65, 0x66, 0x61, 0x75, 0x6c, 0x74, 0x00, 0x01, 0x00, 0x00, 0x00,
  0x04, 0x00, 0x00, 0x00, 0x94, 0xff, 0xff, 0xff, 0x08, 0x00, 0x00, 0x00,
  0x04, 0x00, 0x00, 0x00, 0x07, 0x00, 0x00, 0x00, 0x64, 0x65, 0x6e, 0x73,
  0x65, 0x5f, 0x31, 0x00, 0x01, 0x00, 0x00, 0x00, 0x04, 0x00, 0x00, 0x00,
  0x5a, 0xf6, 0xff, 0xff, 0x04, 0x00, 0x00, 0x00, 0x0d, 0x00, 0x00, 0x00,
  0x66, 0x6c, 0x61, 0x74, 0x74, 0x65, 0x6e, 0x5f, 0x69, 0x6e, 0x70, 0x75,
  0x74, 0x00, 0x00, 0x00, 0x02, 0x00, 0x00, 0x00, 0x34, 0x00, 0x00, 0x00,
  0x04, 0x00, 0x00, 0x00, 0xdc, 0xff, 0xff, 0xff, 0x0b, 0x00, 0x00, 0x00,
  0x04, 0x00, 0x00, 0x00, 0x13, 0x00, 0x00, 0x00, 0x43, 0x4f, 0x4e, 0x56,
  0x45, 0x52, 0x53, 0x49, 0x4f, 0x4e, 0x5f, 0x4d, 0x45, 0x54, 0x41, 0x44,
  0x41, 0x54, 0x41, 0x00, 0x08, 0x00, 0x0c, 0x00, 0x08, 0x00, 0x04, 0x00,
  0x08, 0x00, 0x00, 0x00, 0x0a, 0x00, 0x00, 0x00, 0x04, 0x00, 0x00, 0x00,
  0x13, 0x00, 0x00, 0x00, 0x6d, 0x69, 0x6e, 0x5f, 0x72, 0x75, 0x6e, 0x74,
  0x69, 0x6d, 0x65, 0x5f, 0x76, 0x65, 0x72, 0x73, 0x69, 0x6f, 0x6e, 0x00,
  0x0c, 0x00, 0x00, 0x00, 0x60, 0x09, 0x00, 0x00, 0x58, 0x09, 0x00, 0x00,
  0x28, 0x09, 0x00, 0x00, 0xfc, 0x08, 0x00, 0x00, 0xe4, 0x08, 0x00, 0x00,
  0x54, 0x01, 0x00, 0x00, 0xa4, 0x00, 0x00, 0x00, 0x9c, 0x00, 0x00, 0x00,
  0x94, 0x00, 0x00, 0x00, 0x8c, 0x00, 0x00, 0x00, 0x6c, 0x00, 0x00, 0x00,
  0x04, 0x00, 0x00, 0x00, 0x06, 0xf7, 0xff, 0xff, 0x04, 0x00, 0x00, 0x00,
  0x58, 0x00, 0x00, 0x00, 0x0c, 0x00, 0x00, 0x00, 0x08, 0x00, 0x0e, 0x00,
  0x08, 0x00, 0x04, 0x00, 0x08, 0x00, 0x00, 0x00, 0x10, 0x00, 0x00, 0x00,
  0x28, 0x00, 0x00, 0x00, 0x00, 0x00, 0x06, 0x00, 0x08, 0x00, 0x04, 0x00,
  0x06, 0x00, 0x00, 0x00, 0x04, 0x00, 0x00, 0x00, 0x01, 0x00, 0x00, 0x00,
  0xea, 0x03, 0x00, 0x00, 0x00, 0x00, 0x0a, 0x00, 0x10, 0x00, 0x0c, 0x00,
  0x08, 0x00, 0x04, 0x00, 0x0a, 0x00, 0x00, 0x00, 0x02, 0x00, 0x00, 0x00,
  0x02, 0x00, 0x00, 0x00, 0x04, 0x00, 0x00, 0x00, 0x06, 0x00, 0x00, 0x00,
  0x32, 0x2e, 0x31, 0x33, 0x2e, 0x30, 0x00, 0x00, 0x6a, 0xf7, 0xff, 0xff,
  0x04, 0x00, 0x00, 0x00, 0x10, 0x00, 0x00, 0x00, 0x31, 0x2e, 0x35, 0x2e,
  0x30, 0x00, 0x00, 0x00, 0x00, 0x00, 0x00, 0x00, 0x00, 0x00, 0x00, 0x00,
  0xe8, 0xf2, 0xff, 0xff, 0xec, 0xf2, 0xff, 0xff, 0xf0, 0xf2, 0xff, 0xff,
  0x92, 0xf7, 0xff, 0xff, 0x04, 0x00, 0x00, 0x00, 0xa0, 0x00, 0x00, 0x00,
  0xce, 0x7e, 0x98, 0x3e, 0x47, 0x6b, 0x38, 0xbf, 0x9a, 0x3d, 0x14, 0x3f,
  0x1c, 0xfc, 0xc9, 0x3e, 0xc3, 0x15, 0x8e, 0xbf, 0x28, 0x3a, 0x02, 0x3f,
  0x51, 0xec, 0x09, 0x3f, 0xfb, 0xc3, 0xee, 0xbd, 0x6c, 0x92, 0x5b, 0x3e,
  0xbd, 0xf6, 0x0a, 0xbf, 0xfe, 0x7b, 0x08, 0xbe, 0x8e, 0x43, 0x9e, 0xbe,
  0x29, 0x2d, 0x5d, 0x3f, 0x30, 0x68, 0xcc, 0xbd, 0xd2, 0x06, 0x18, 0x3d,
  0xc6, 0xb1, 0x09, 0xbf, 0x64, 0xf1, 0x03, 0xbf, 0x07, 0xe5, 0x48, 0x3f,
  0xc7, 0xff, 0x15, 0x3f, 0x36, 0xd5, 0x9b, 0x3e, 0xcc, 0x6f, 0x18, 0x3c,
  0xac, 0x22, 0xfe, 0x3e, 0x80, 0x60, 0x5b, 0xbf, 0x56, 0xb2, 0x13, 0x3f,
  0xef, 0xd1, 0xa0, 0xbe, 0xba, 0x41, 0x50, 0x3f, 0x1d, 0xc4, 0x3c, 0xbf,
  0x1c, 0x9e, 0x1c, 0x3e, 0xec, 0xab, 0xc0, 0xbe, 0x2c, 0xb9, 0xc7, 0x3e,
  0xcc, 0xe2, 0x06, 0x3f, 0x90, 0xc3, 0xd8, 0x3e, 0x36, 0x94, 0xbf, 0xbe,
  0x3b, 0x09, 0x86, 0xbe, 0xe1, 0xbd, 0x00, 0x3f, 0x42, 0x24, 0x07, 0x3f,
  0xb3, 0x1b, 0xc5, 0xbc, 0x38, 0x44, 0xcb, 0xbd, 0xf3, 0xa9, 0x7c, 0x3e,
  0xac, 0x33, 0xdd, 0x3e, 0x3e, 0xf8, 0xff, 0xff, 0x04, 0x00, 0x00, 0x00,
  0x80, 0x07, 0x00, 0x00, 0x33, 0x01, 0x5f, 0xbe, 0x68, 0xb4, 0x21, 0x3e,
  0x53, 0x69, 0x47, 0xbe, 0xda, 0xe8, 0x82, 0x3e, 0x40, 0x39, 0x1d, 0x3c,
  0x60, 0xbb, 0x3c, 0x3d, 0xd6, 0x4e, 0x84, 0x3e, 0xe6, 0x99, 0xa5, 0xbd,
  0xbc, 0xbb, 0xd7, 0x3d, 0x10, 0xb3, 0x89, 0x3e, 0xb0, 0xd4, 0x1a, 0xbd,
  0xf0, 0x12, 0x5d, 0xbe, 0x84, 0x7d, 0xe7, 0x3d, 0xac, 0x80, 0x34, 0x3e,
  0x04, 0x27, 0x35, 0x3e, 0x98, 0x8b, 0x00, 0x3d, 0x30, 0xed, 0xea, 0xbc,
  0xc0, 0x57, 0xb6, 0x3c, 0x3c, 0x32, 0x94, 0xbe, 0xf0, 0x96, 0x77, 0xbe,
  0x7a, 0xbc, 0x62, 0xbe, 0xba, 0x4a, 0x48, 0xbe, 0xb0, 0xe7, 0x5d, 0x3e,
  0x30, 0x4c, 0x94, 0x3c, 0xb6, 0xa0, 0x2f, 0x3e, 0x5e, 0x02, 0x00, 0x3e,
  0xbd, 0x0a, 0x3b, 0xbe, 0x83, 0x49, 0x93, 0xbe, 0xc8, 0xd7, 0x69, 0x3e,
  0xd2, 0x16, 0x28, 0x3e, 0xd0, 0x17, 0x8d, 0xbc, 0x42, 0x66, 0x09, 0xbe,
  0xf6, 0xb4, 0x83, 0x3e, 0x02, 0x6a, 0x13, 0xbe, 0xe2, 0x1d, 0x55, 0xbe,
  0x20, 0xc0, 0x1a, 0xbd, 0xa4, 0xad, 0x76, 0x3e, 0x35, 0x56, 0x06, 0xbe,
  0x78, 0x33, 0x5b, 0x3e, 0x31, 0xab, 0x7c, 0xbe, 0x5e, 0x7a, 0xe7, 0xbd,
  0x94, 0xaa, 0x8d, 0x3e, 0x5e, 0x5e, 0x2d, 0x3e, 0x68, 0x55, 0x12, 0xbe,
  0xf0, 0x85, 0x6f, 0x3e, 0x8c, 0x9d, 0xa8, 0x3d, 0xa5, 0xa7, 0x0e, 0xbe,
  0xb8, 0xf4, 0x3a, 0x3e, 0x2d, 0xc2, 0x42, 0xbe, 0x18, 0xd6, 0x04, 0x3e,
  0x5c, 0xcd, 0x10, 0x3e, 0x44, 0x5e, 0x01, 0x3e, 0x5e, 0xc9, 0x21, 0xbe,
  0x4a, 0xb3, 0xac, 0xbd, 0x3e, 0x8f, 0x93, 0xbe, 0x70, 0xbf, 0x47, 0xbd,
  0xa0, 0x8f, 0x36, 0x3e, 0xc0, 0x5d, 0xab, 0xbc, 0xaf, 0x1f, 0x00, 0xbe,
  0x50, 0xe3, 0xd7, 0xbd, 0x26, 0x36, 0xab, 0xbe, 0xdc, 0xbf, 0xc8, 0x3e,
  0xf0, 0x2f, 0x56, 0x3d, 0x20, 0x8f, 0xab, 0xbe, 0x06, 0xdf, 0x9f, 0xb9,
  0x10, 0xd7, 0x32, 0xbe, 0x81, 0x9c, 0xc8, 0x3d, 0x31, 0x2a, 0x96, 0x3e,
  0x06, 0x80, 0xcb, 0x3e, 0xa5, 0x43, 0xc3, 0xbe, 0xd1, 0xf1, 0xe3, 0x3e,
  0x07, 0x95, 0x57, 0x3e, 0x48, 0x88, 0xc8, 0xbe, 0xb6, 0x31, 0xc6, 0x3e,
  0xf0, 0xc3, 0x9f, 0x3e, 0x76, 0x79, 0xd3, 0xbe, 0x0c, 0xfe, 0xee, 0x3e,
  0xbc, 0xfb, 0x27, 0xbe, 0xb3, 0x03, 0x9b, 0xbe, 0xda, 0xda, 0x65, 0x3e,
  0x12, 0x6b, 0x94, 0x3c, 0xbe, 0x41, 0x33, 0x3c, 0x69, 0x29, 0x21, 0x3e,
  0x36, 0xb5, 0x12, 0x3e, 0x31, 0xaa, 0x67, 0xbe, 0xf9, 0xab, 0xf7, 0x3e,
  0xe0, 0xce, 0xac, 0xbc, 0x15, 0x64, 0x8d, 0xbd, 0xbd, 0xdd, 0x0f, 0x3f,
  0xa9, 0x3f, 0xfa, 0x3b, 0x6c, 0xd5, 0xc8, 0xbe, 0x6b, 0x88, 0x8b, 0x3e,
  0x02, 0xb5, 0xbc, 0x3d, 0xfb, 0x8a, 0x81, 0x3d, 0x54, 0x8f, 0xb6, 0x3e,
  0x13, 0x16, 0x8f, 0x3e, 0x2f, 0xb2, 0x80, 0xbe, 0x8b, 0x15, 0xee, 0x3e,
  0xf9, 0x81, 0x3d, 0x3e, 0x66, 0xbd, 0x87, 0x3d, 0x1d, 0xea, 0x99, 0x3e,
  0x3c, 0xa1, 0xba, 0x3e, 0x5e, 0x89, 0xce, 0xbe, 0x0a, 0x66, 0x39, 0x3e,
  0x4f, 0xf9, 0xde, 0xbd, 0x7d, 0xf3, 0xa4, 0xbe, 0x39, 0xdc, 0xb3, 0x3e,
  0x25, 0xf3, 0x0f, 0xbd, 0x08, 0x88, 0x6e, 0xbe, 0xc1, 0x1f, 0x33, 0x3e,
  0x96, 0xf8, 0xba, 0x3e, 0xc3, 0x94, 0xca, 0xbe, 0x9a, 0xad, 0x85, 0xbc,
  0x7e, 0x15, 0xab, 0x3b, 0x1b, 0x51, 0x0c, 0x3e, 0x15, 0x68, 0xf7, 0x3e,
  0x6a, 0x5c, 0x0e, 0xbe, 0xd8, 0x66, 0x9f, 0xbd, 0x0b, 0x26, 0xda, 0x3e,
  0xce, 0x4c, 0x86, 0x3d, 0x88, 0xbe, 0xae, 0xbe, 0x6d, 0xb3, 0x6b, 0xbe,
  0x08, 0x93, 0x55, 0xbe, 0x32, 0xcd, 0xc4, 0x3c, 0x0c, 0xba, 0x1b, 0x3e,
  0x30, 0x9c, 0x6f, 0xbe, 0x8f, 0xc0, 0x8d, 0xbe, 0x66, 0x3d, 0x65, 0x3d,
  0xb8, 0x16, 0xb4, 0xbe, 0xd6, 0x8b, 0xbf, 0xbe, 0x38, 0x9f, 0x34, 0xbd,
  0xe2, 0x7f, 0xd5, 0xbc, 0x8a, 0x05, 0xa9, 0xbd, 0xcc, 0x26, 0xce, 0xbd,
  0xbe, 0x78, 0x55, 0x3e, 0xd4, 0x37, 0x09, 0x3e, 0x98, 0x54, 0x3f, 0xbe,
  0x4c, 0x9c, 0xa6, 0xbd, 0xcc, 0x1c, 0x4a, 0xbe, 0xb0, 0x13, 0xdb, 0x3d,
  0x14, 0xab, 0x61, 0xbe, 0xc7, 0xb9, 0x3e, 0xbe, 0x78, 0x9a, 0x98, 0xbe,
  0x8a, 0x56, 0xa0, 0xbd, 0x77, 0x33, 0x28, 0xbe, 0xea, 0xcd, 0xfb, 0xbd,
  0xb7, 0xe1, 0xa2, 0xbe, 0x86, 0x4e, 0x95, 0xbd, 0xe6, 0xe0, 0x4c, 0xbe,
  0xf6, 0x95, 0x73, 0x3d, 0x1d, 0x4d, 0x71, 0xbe, 0x7e, 0xfe, 0x1b, 0xbe,
  0x05, 0x01, 0x8e, 0xbe, 0xf1, 0x92, 0x86, 0xbe, 0xa7, 0xef, 0x52, 0xbe,
  0x38, 0xbf, 0x0b, 0x3d, 0x79, 0x6d, 0x4d, 0xbe, 0x72, 0x77, 0xad, 0x3d,
  0x8b, 0xb0, 0x34, 0x3e, 0xf1, 0xfa, 0x17, 0xbd, 0x5d, 0xe9, 0x37, 0x3e,
  0xd5, 0x8e, 0x3b, 0xbe, 0xe6, 0xf2, 0x38, 0x3e, 0x89, 0x4f, 0x94, 0x3d,
  0xf2, 0x5b, 0xa8, 0xbe, 0xd0, 0x1b, 0xcb, 0xbe, 0xc4, 0x3d, 0x96, 0x3d,
  0x65, 0x3f, 0x2d, 0x3e, 0xc5, 0x06, 0x9e, 0x3d, 0x4f, 0x38, 0x4f, 0x3e,
  0x3b, 0xa8, 0x52, 0xbe, 0x25, 0x70, 0x91, 0xbe, 0x07, 0x01, 0x68, 0xbe,
  0x81, 0x7d, 0x89, 0x3d, 0x2e, 0x04, 0x4b, 0x3d, 0xc1, 0x43, 0xb0, 0xbb,
  0x92, 0x39, 0x1e, 0xbe, 0x66, 0x4b, 0x91, 0xbe, 0x00, 0xdc, 0xa8, 0xbe,
  0x30, 0x66, 0x86, 0x3c, 0xe0, 0x16, 0x03, 0x3e, 0xe7, 0x3d, 0x8a, 0xbe,
  0x3c, 0xb4, 0x27, 0x3e, 0xfe, 0xea, 0x40, 0xbe, 0x10, 0x90, 0xc2, 0x3c,
  0x12, 0xbd, 0x83, 0x3e, 0x1c, 0xe9, 0xad, 0xbd, 0xb4, 0xdc, 0xb2, 0xbd,
  0x70, 0x41, 0x4e, 0x3e, 0x5c, 0x86, 0xfb, 0x3d, 0x00, 0x5e, 0xd3, 0x3d,
  0x66, 0x43, 0x96, 0x3e, 0x54, 0x37, 0x1d, 0xbe, 0x8f, 0x91, 0x5b, 0xbe,
  0xc8, 0x40, 0x66, 0x3e, 0x20, 0xde, 0x56, 0x3e, 0x40, 0xbc, 0xef, 0xbb,
  0xc2, 0x1c, 0x0f, 0x3e, 0x54, 0x05, 0xdd, 0x3d, 0x4a, 0x5d, 0x13, 0x3e,
  0x66, 0x51, 0x4b, 0xbe, 0xe5, 0x25, 0x71, 0xbe, 0xa0, 0xaf, 0x4f, 0xbc,
  0xba, 0x1b, 0x65, 0xbe, 0xf8, 0xcc, 0x07, 0xbe, 0x35, 0x42, 0x12, 0xbe,
  0x98, 0xcd, 0xfa, 0x3d, 0x68, 0xc7, 0x84, 0x3e, 0x24, 0xba, 0x95, 0x3d,
  0xd4, 0xf3, 0x3a, 0xbe, 0x00, 0x4f, 0xec, 0xbd, 0xcc, 0x5e, 0xd9, 0x3d,
  0x02, 0x48, 0x00, 0x3e, 0x6c, 0xc2, 0xd0, 0xbd, 0xdc, 0x32, 0x80, 0x3d,
  0x30, 0xcd, 0x31, 0xbe, 0xaa, 0xbe, 0x8e, 0x3e, 0x26, 0x4d, 0xa5, 0xbd,
  0x22, 0xa6, 0xb0, 0xbd, 0xc8, 0xc5, 0x76, 0xbe, 0xa6, 0x7a, 0x92, 0x3e,
  0x2e, 0x1b, 0x23, 0xbe, 0xca, 0xb2, 0x0d, 0x3e, 0x46, 0x20, 0xa6, 0xbd,
  0xc8, 0xa8, 0x22, 0xbd, 0x6a, 0xee, 0x83, 0xbd, 0xd6, 0x60, 0x7d, 0xbe,
  0xbe, 0x7d, 0x86, 0x3e, 0xe0, 0x5a, 0x73, 0x3d, 0x20, 0x72, 0x97, 0xbe,
  0x70, 0x49, 0x25, 0x3d, 0x10, 0xee, 0xe7, 0xbd, 0xd2, 0x56, 0x46, 0x3e,
  0xf2, 0x8b, 0x81, 0x3e, 0x14, 0x0e, 0xe6, 0xbd, 0xfc, 0x76, 0x24, 0x3e,
  0x36, 0x1b, 0x3f, 0xbe, 0x16, 0xbc, 0x89, 0x3e, 0x00, 0xa5, 0x35, 0x3e,
  0x00, 0x56, 0xf6, 0xbb, 0x76, 0x0f, 0xa9, 0xbc, 0x41, 0x64, 0x9a, 0xbe,
  0xa1, 0x93, 0xe2, 0xbd, 0xd6, 0xa9, 0xa3, 0xbe, 0x50, 0xb2, 0xfc, 0xbe,
  0xdc, 0x60, 0xd4, 0x3d, 0xd3, 0x64, 0x62, 0x3b, 0xf2, 0xad, 0xb5, 0xbe,
  0xa9, 0xb5, 0x2d, 0xbe, 0xfc, 0xf0, 0x8f, 0xbe, 0x8c, 0xb9, 0xf2, 0xbe,
  0xc2, 0x86, 0xbc, 0x3c, 0x90, 0x9f, 0xc2, 0xbe, 0xc6, 0xcb, 0xfd, 0xbd,
  0x90, 0xe1, 0xe7, 0x3c, 0x1d, 0x47, 0xe3, 0xbe, 0xed, 0xe3, 0x3d, 0xbe,
  0x6e, 0x1f, 0x24, 0xbe, 0x95, 0x21, 0x00, 0xbd, 0x67, 0x62, 0x02, 0xbf,
  0x73, 0xa4, 0x11, 0x3e, 0xc9, 0x4b, 0x48, 0xbe, 0xfb, 0xea, 0xe8, 0xbd,
  0x69, 0xab, 0x56, 0x3d, 0x8d, 0x3e, 0x01, 0xbe, 0x9b, 0x74, 0x90, 0xbe,
  0xa8, 0xd3, 0x9d, 0xbc, 0xef, 0xae, 0xef, 0x3c, 0xad, 0x5e, 0x15, 0xbe,
  0x03, 0xc1, 0x6c, 0x3e, 0xfa, 0x44, 0xa6, 0xbe, 0x39, 0x94, 0x0c, 0xbf,
  0xd7, 0x0a, 0x94, 0x3e, 0x18, 0xf0, 0xa0, 0xbe, 0xcb, 0xe4, 0x82, 0xbe,
  0x09, 0x4e, 0x36, 0x3e, 0xf3, 0x92, 0x10, 0xbe, 0x56, 0x76, 0x0e, 0xbf,
  0xf5, 0x5f, 0x3c, 0x3e, 0x32, 0x40, 0xa8, 0xbd, 0x73, 0xc3, 0x0b, 0xbe,
  0x21, 0x31, 0x4a, 0x3e, 0x54, 0x65, 0xd8, 0xbe, 0x01, 0x98, 0xf6, 0xbe,
  0xd9, 0xd5, 0x89, 0x3e, 0x0e, 0x2f, 0xa4, 0xbe, 0x41, 0x06, 0x14, 0xbf,
  0x73, 0x66, 0x98, 0xbd, 0x1e, 0x47, 0x70, 0xbd, 0x49, 0xb3, 0x3f, 0xbe,
  0x0a, 0x4a, 0x8e, 0xbd, 0x80, 0x60, 0xbc, 0xbe, 0xb7, 0x76, 0x23, 0xbf,
  0x1d, 0x04, 0x3a, 0x3e, 0x42, 0x72, 0xa0, 0x3d, 0x22, 0xa8, 0xb1, 0xbe,
  0x56, 0xf3, 0x83, 0xbc, 0xa0, 0x10, 0x38, 0xbe, 0x71, 0xaa, 0xe4, 0xbe,
  0x43, 0xdb, 0xce, 0x3e, 0x38, 0x1b, 0xad, 0x3d, 0x0e, 0x33, 0xa8, 0xbd,
  0xb8, 0x1b, 0x39, 0x3e, 0x68, 0x19, 0x4d, 0x3d, 0xa6, 0xc2, 0x92, 0x3e,
  0x04, 0x37, 0x70, 0xbe, 0x70, 0x40, 0x8a, 0xbe, 0xe0, 0xec, 0x3d, 0x3e,
  0xb8, 0x05, 0x72, 0x3e, 0xc4, 0xfa, 0x42, 0x3e, 0x88, 0xc4, 0x19, 0xbe,
  0xe0, 0xcc, 0xf0, 0xbc, 0x5c, 0x90, 0x7e, 0xbe, 0xd6, 0xa9, 0x8c, 0x3e,
  0x00, 0x0a, 0xec, 0x3a, 0x82, 0x66, 0x4f, 0x3e, 0xe8, 0x19, 0x0e, 0x3d,
  0x64, 0xa7, 0x50, 0xbd, 0xf6, 0x7a, 0x76, 0xbe, 0x00, 0xd0, 0xb2, 0x38,
  0xc8, 0xf0, 0xca, 0x3d, 0x48, 0x7d, 0x61, 0xbd, 0x78, 0xee, 0xe9, 0xbd,
  0xf4, 0x65, 0xaf, 0xbd, 0x28, 0x66, 0xf0, 0x3d, 0xba, 0x8b, 0x2d, 0x3e,
  0x70, 0xa5, 0x4d, 0xbe, 0x38, 0xcf, 0x2e, 0xbd, 0x68, 0xe9, 0x85, 0xbe,
  0xc0, 0x4d, 0x2b, 0xbd, 0x6e, 0xba, 0xd9, 0xbd, 0xc4, 0xef, 0xa9, 0x3d,
  0xa4, 0x64, 0x24, 0xbe, 0x50, 0x51, 0xff, 0xbc, 0x7c, 0xe0, 0xb1, 0x3d,
  0x48, 0x68, 0x8b, 0x3e, 0xb0, 0x55, 0x73, 0x3e, 0x23, 0x46, 0x04, 0xbe,
  0xc0, 0x00, 0x61, 0x3c, 0xbe, 0xf8, 0x97, 0xbe, 0x04, 0xe2, 0x19, 0x3e,
  0xd3, 0x5e, 0x15, 0xbe, 0x3c, 0xff, 0xb7, 0x3d, 0xa0, 0xc6, 0x66, 0x3d,
  0x48, 0x2e, 0x63, 0x3e, 0xba, 0xfb, 0x97, 0x3e, 0x00, 0x25, 0x46, 0x3d,
  0x46, 0xf5, 0x40, 0x3e, 0x64, 0xfd, 0x0b, 0x3e, 0xa8, 0xd2, 0x1b, 0x3d,
  0xb0, 0x1e, 0x5a, 0x3e, 0xc0, 0x84, 0xf3, 0xbb, 0x52, 0x1b, 0xa0, 0xbd,
  0x54, 0xf6, 0x86, 0x3e, 0x78, 0xf0, 0xd5, 0xbd, 0x20, 0x1e, 0x5c, 0x3d,
  0x5c, 0xc7, 0xfc, 0xbd, 0x5e, 0x91, 0xb7, 0xbd, 0x08, 0x53, 0x89, 0xbe,
  0x56, 0x4f, 0x02, 0x3e, 0x54, 0x0b, 0x91, 0x3e, 0x46, 0xab, 0x1e, 0x3e,
  0x9d, 0x23, 0x90, 0xbd, 0x72, 0xd3, 0x2a, 0xbe, 0x05, 0xdc, 0xfd, 0x3d,
  0x9d, 0x4a, 0xbe, 0xbe, 0xba, 0x80, 0xda, 0xbd, 0x75, 0x21, 0x3e, 0x3e,
  0x99, 0x9a, 0x07, 0xbe, 0xa7, 0x5a, 0xa6, 0xbc, 0xd7, 0xf7, 0xbe, 0x3e,
  0x68, 0x8b, 0xcf, 0xbe, 0x9f, 0x22, 0x29, 0xbe, 0x7d, 0xc3, 0x57, 0x3c,
  0xdd, 0xc4, 0x08, 0x3b, 0xed, 0xd9, 0x42, 0xbe, 0x85, 0xe4, 0x53, 0x3e,
  0x51, 0x28, 0x8f, 0xbe, 0xc5, 0x3b, 0x20, 0x3d, 0x17, 0x01, 0x08, 0xbc,
  0x73, 0x12, 0x4e, 0xbe, 0xfb, 0xaa, 0x5e, 0x3e, 0xb3, 0x8b, 0x58, 0xbd,
  0xd7, 0xc7, 0x87, 0xbd, 0xe0, 0x6f, 0xeb, 0x3d, 0xfd, 0xf9, 0x3c, 0x3d,
  0x24, 0x64, 0xdc, 0xbd, 0x4d, 0x1a, 0x4a, 0x3e, 0x2a, 0x95, 0xb1, 0x3e,
  0x39, 0xb4, 0xba, 0xbe, 0x64, 0x84, 0x7d, 0xbd, 0x3f, 0xe2, 0x70, 0x3e,
  0xc7, 0xd8, 0x04, 0xbe, 0xbe, 0x43, 0x10, 0x3e, 0xfc, 0x5b, 0x7b, 0xbd,
  0x36, 0xbb, 0xb9, 0xbe, 0x81, 0x5d, 0x35, 0xbe, 0xf9, 0xf6, 0x92, 0xbd,
  0x2c, 0xad, 0x8c, 0xbe, 0x9b, 0x54, 0x6b, 0x3e, 0xb6, 0xa4, 0x95, 0x3e,
  0x21, 0x1c, 0x4f, 0xbe, 0x90, 0xae, 0x3f, 0xbe, 0x0c, 0xcc, 0xcd, 0x3e,
  0xbf, 0xa6, 0xf2, 0xbe, 0x46, 0xbd, 0xde, 0x3c, 0x3a, 0x8c, 0x26, 0x3e,
  0xd9, 0xc8, 0x69, 0xbe, 0x21, 0xce, 0xdc, 0xbd, 0x8d, 0x29, 0x50, 0x3d,
  0x44, 0xa4, 0x64, 0xbe, 0xdf, 0x02, 0x51, 0x3d, 0x16, 0x74, 0x26, 0x3e,
  0xa4, 0x78, 0x02, 0xbf, 0xfd, 0x89, 0xf7, 0xbd, 0xaa, 0xfb, 0x62, 0x3e,
  0xe3, 0xfb, 0x8c, 0xbe, 0x9f, 0x25, 0x97, 0x3e, 0xa9, 0x73, 0xcc, 0xbc,
  0x24, 0xe0, 0x93, 0xbe, 0xbe, 0xa6, 0x12, 0xbe, 0x3b, 0xff, 0x85, 0xbe,
  0x1f, 0x18, 0x09, 0x3e, 0xb2, 0x67, 0x96, 0x3e, 0xfe, 0xd6, 0xc5, 0xbc,
  0xff, 0x5e, 0x12, 0xbe, 0x26, 0xb0, 0x06, 0x3e, 0x45, 0xb5, 0x36, 0x3e,
  0xc4, 0x16, 0x85, 0x3e, 0xef, 0x5b, 0x7f, 0xbe, 0x70, 0xff, 0x4e, 0x3d,
  0xec, 0xe9, 0xee, 0xbd, 0xf4, 0xbf, 0x4d, 0x3e, 0xc8, 0x6b, 0x25, 0xbd,
  0x78, 0x00, 0xee, 0x3c, 0xb6, 0x0b, 0xae, 0xbc, 0x04, 0x77, 0x8a, 0x3e,
  0x8a, 0x4a, 0x39, 0xbe, 0xb5, 0xfb, 0x89, 0x3e, 0x5e, 0x54, 0xbf, 0x3c,
  0x7a, 0x5b, 0x92, 0xbe, 0x35, 0xee, 0x24, 0x3e, 0xfe, 0xd9, 0x94, 0x3e,
  0x86, 0x1f, 0x53, 0x3e, 0x6e, 0x12, 0x62, 0xbe, 0xb6, 0x7e, 0xc0, 0xbd,
  0xf7, 0xf9, 0xfb, 0xbd, 0x41, 0x18, 0x05, 0xbe, 0x2f, 0x96, 0x1a, 0x3e,
  0x74, 0x8c, 0xc9, 0x3d, 0xcf, 0xe9, 0xa0, 0x3d, 0x3d, 0x6f, 0x40, 0xbd,
  0x8d, 0x4a, 0x5d, 0x3e, 0x32, 0x13, 0xdd, 0x3d, 0x74, 0xc3, 0x89, 0x3e,
  0x6b, 0x1c, 0x00, 0x3e, 0x76, 0x1e, 0x73, 0x3e, 0x90, 0xfe, 0x24, 0xbe,
  0x6a, 0x20, 0xad, 0xbd, 0x52, 0x94, 0x97, 0xbd, 0xbd, 0x16, 0x2c, 0x3e,
  0xec, 0xee, 0x89, 0x3c, 0x31, 0xfc, 0x2a, 0x3d, 0x45, 0x82, 0xa7, 0xbd,
  0x36, 0x17, 0x8e, 0xbe, 0x8a, 0x8b, 0x7b, 0xbe, 0xbb, 0xf4, 0x68, 0x3e,
  0x91, 0xf4, 0x88, 0xbd, 0x11, 0xcd, 0x7e, 0x3d, 0xe8, 0xef, 0x91, 0xbd,
  0xbf, 0x5a, 0x12, 0x3d, 0xd6, 0xe3, 0x0f, 0x3e, 0xfe, 0x11, 0x98, 0x3d,
  0xe6, 0xb1, 0x69, 0x3e, 0x19, 0x10, 0x14, 0x3e, 0x5a, 0xfb, 0x86, 0xbe,
  0x4a, 0x8b, 0xb4, 0x3c, 0xfd, 0xb9, 0x21, 0xbe, 0x68, 0x31, 0x21, 0xbd,
  0x38, 0xa9, 0x2c, 0xbe, 0xca, 0xff, 0xff, 0xff, 0x04, 0x00, 0x00, 0x00,
  0x08, 0x00, 0x00, 0x00, 0xff, 0xff, 0xff, 0xff, 0x3c, 0x00, 0x00, 0x00,
  0xde, 0xff, 0xff, 0xff, 0x04, 0x00, 0x00, 0x00, 0x14, 0x00, 0x00, 0x00,
  0x9a, 0xe2, 0x9b, 0x3e, 0x0a, 0xd0, 0x54, 0xbd, 0xf1, 0x5f, 0x66, 0xbe,
  0x8b, 0xd0, 0x07, 0xbd, 0xfe, 0x6f, 0x3f, 0xbd, 0x00, 0x00, 0x06, 0x00,
  0x08, 0x00, 0x04, 0x00, 0x06, 0x00, 0x00, 0x00, 0x04, 0x00, 0x00, 0x00,
  0x20, 0x00, 0x00, 0x00, 0x00, 0x00, 0x00, 0x00, 0x26, 0xa0, 0xbd, 0xbd,
  0x88, 0x31, 0x24, 0x3d, 0x00, 0x00, 0x00, 0x00, 0x0d, 0x0f, 0x2c, 0xbd,
  0x00, 0x00, 0x00, 0x00, 0xb3, 0xf8, 0x82, 0x3e, 0x98, 0x0e, 0x20, 0xbc,
  0x94, 0xfb, 0xff, 0xff, 0x98, 0xfb, 0xff, 0xff, 0x0f, 0x00, 0x00, 0x00,
  0x4d, 0x4c, 0x49, 0x52, 0x20, 0x43, 0x6f, 0x6e, 0x76, 0x65, 0x72, 0x74,
  0x65, 0x64, 0x2e, 0x00, 0x01, 0x00, 0x00, 0x00, 0x14, 0x00, 0x00, 0x00,
  0x00, 0x00, 0x0e, 0x00, 0x18, 0x00, 0x14, 0x00, 0x10, 0x00, 0x0c, 0x00,
  0x08, 0x00, 0x04, 0x00, 0x0e, 0x00, 0x00, 0x00, 0x14, 0x00, 0x00, 0x00,
  0x1c, 0x00, 0x00, 0x00, 0xd8, 0x00, 0x00, 0x00, 0xdc, 0x00, 0x00, 0x00,
  0xe0, 0x00, 0x00, 0x00, 0x04, 0x00, 0x00, 0x00, 0x6d, 0x61, 0x69, 0x6e,
  0x00, 0x00, 0x00, 0x00, 0x03, 0x00, 0x00, 0x00, 0x9c, 0x00, 0x00, 0x00,
  0x4c, 0x00, 0x00, 0x00, 0x04, 0x00, 0x00, 0x00, 0xca, 0xff, 0xff, 0xff,
  0x14, 0x00, 0x00, 0x00, 0x00, 0x00, 0x00, 0x08, 0x10, 0x00, 0x00, 0x00,
  0x14, 0x00, 0x00, 0x00, 0x01, 0x00, 0x00, 0x00, 0x14, 0xfc, 0xff, 0xff,
  0x01, 0x00, 0x00, 0x00, 0x08, 0x00, 0x00, 0x00, 0x03, 0x00, 0x00, 0x00,
  0x07, 0x00, 0x00, 0x00, 0x05, 0x00, 0x00, 0x00, 0x02, 0x00, 0x00, 0x00,
  0x00, 0x00, 0x0e, 0x00, 0x1a, 0x00, 0x14, 0x00, 0x10, 0x00, 0x0c, 0x00,
  0x0b, 0x00, 0x04, 0x00, 0x0e, 0x00, 0x00, 0x00, 0x1c, 0x00, 0x00, 0x00,
  0x00, 0x00, 0x00, 0x08, 0x1c, 0x00, 0x00, 0x00, 0x20, 0x00, 0x00, 0x00,
  0x01, 0x00, 0x00, 0x00, 0x00, 0x00, 0x06, 0x00, 0x08, 0x00, 0x07, 0x00,
  0x06, 0x00, 0x00, 0x00, 0x00, 0x00, 0x00, 0x01, 0x01, 0x00, 0x00, 0x00,
  0x07, 0x00, 0x00, 0x00, 0x03, 0x00, 0x00, 0x00, 0x06, 0x00, 0x00, 0x00,
  0x04, 0x00, 0x00, 0x00, 0x01, 0x00, 0x00, 0x00, 0x00, 0x00, 0x0a, 0x00,
  0x0c, 0x00, 0x00, 0x00, 0x08, 0x00, 0x04, 0x00, 0x0a, 0x00, 0x00, 0x00,
  0x08, 0x00, 0x00, 0x00, 0x0c, 0x00, 0x00, 0x00, 0x01, 0x00, 0x00, 0x00,
  0x06, 0x00, 0x00, 0x00, 0x02, 0x00, 0x00, 0x00, 0x00, 0x00, 0x00, 0x00,
  0x03, 0x00, 0x00, 0x00, 0x01, 0x00, 0x00, 0x00, 0x08, 0x00, 0x00, 0x00,
  0x01, 0x00, 0x00, 0x00, 0x00, 0x00, 0x00, 0x00, 0x09, 0x00, 0x00, 0x00,
  0x18, 0x03, 0x00, 0x00, 0xac, 0x02, 0x00, 0x00, 0x3c, 0x02, 0x00, 0x00,
  0xf0, 0x01, 0x00, 0x00, 0x90, 0x01, 0x00, 0x00, 0x44, 0x01, 0x00, 0x00,
  0xe8, 0x00, 0x00, 0x00, 0x60, 0x00, 0x00, 0x00, 0x04, 0x00, 0x00, 0x00,
  0x22, 0xfd, 0xff, 0xff, 0x00, 0x00, 0x00, 0x01, 0x14, 0x00, 0x00, 0x00,
  0x1c, 0x00, 0x00, 0x00, 0x1c, 0x00, 0x00, 0x00, 0x09, 0x00, 0x00, 0x00,
  0x34, 0x00, 0x00, 0x00, 0x02, 0x00, 0x00, 0x00, 0xff, 0xff, 0xff, 0xff,
  0x05, 0x00, 0x00, 0x00, 0x0c, 0xfd, 0xff, 0xff, 0x19, 0x00, 0x00, 0x00,
  0x53, 0x74, 0x61, 0x74, 0x65, 0x66, 0x75, 0x6c, 0x50, 0x61, 0x72, 0x74,
  0x69, 0x74, 0x69, 0x6f, 0x6e, 0x65, 0x64, 0x43, 0x61, 0x6c, 0x6c, 0x3a,
  0x30, 0x00, 0x00, 0x00, 0x02, 0x00, 0x00, 0x00, 0x01, 0x00, 0x00, 0x00,
  0x05, 0x00, 0x00, 0x00, 0x7a, 0xfd, 0xff, 0xff, 0x00, 0x00, 0x00, 0x01,
  0x14, 0x00, 0x00, 0x00, 0x1c, 0x00, 0x00, 0x00, 0x1c, 0x00, 0x00, 0x00,
  0x08, 0x00, 0x00, 0x00, 0x60, 0x00, 0x00, 0x00, 0x02, 0x00, 0x00, 0x00,
  0xff, 0xff, 0xff, 0xff, 0x08, 0x00, 0x00, 0x00, 0x64, 0xfd, 0xff, 0xff,
  0x46, 0x00, 0x00, 0x00, 0x73, 0x65, 0x71, 0x75, 0x65, 0x6e, 0x74, 0x69,
  0x61, 0x6c, 0x2f, 0x64, 0x65, 0x6e, 0x73, 0x65, 0x2f, 0x4d, 0x61, 0x74,
  0x4d, 0x75, 0x6c, 0x3b, 0x73, 0x65, 0x71, 0x75, 0x65, 0x6e, 0x74, 0x69,
  0x61, 0x6c, 0x2f, 0x64, 0x65, 0x6e, 0x73, 0x65, 0x2f, 0x52, 0x65, 0x6c,
  0x75, 0x3b, 0x73, 0x65, 0x71, 0x75, 0x65, 0x6e, 0x74, 0x69, 0x61, 0x6c,
  0x2f, 0x64, 0x65, 0x6e, 0x73, 0x65, 0x2f, 0x42, 0x69, 0x61, 0x73, 0x41,
  0x64, 0x64, 0x00, 0x00, 0x02, 0x00, 0x00, 0x00, 0x01, 0x00, 0x00, 0x00,
  0x08, 0x00, 0x00, 0x00, 0xfe, 0xfd, 0xff, 0xff, 0x00, 0x00, 0x00, 0x01,
  0x14, 0x00, 0x00, 0x00, 0x1c, 0x00, 0x00, 0x00, 0x1c, 0x00, 0x00, 0x00,
  0x07, 0x00, 0x00, 0x00, 0x34, 0x00, 0x00, 0x00, 0x02, 0x00, 0x00, 0x00,
  0xff, 0xff, 0xff, 0xff, 0x3c, 0x00, 0x00, 0x00, 0xe8, 0xfd, 0xff, 0xff,
  0x1a, 0x00, 0x00, 0x00, 0x73, 0x65, 0x71, 0x75, 0x65, 0x6e, 0x74, 0x69,
  0x61, 0x6c, 0x2f, 0x66, 0x6c, 0x61, 0x74, 0x74, 0x65, 0x6e, 0x2f, 0x52,
  0x65, 0x73, 0x68, 0x61, 0x70, 0x65, 0x00, 0x00, 0x02, 0x00, 0x00, 0x00,
  0x01, 0x00, 0x00, 0x00, 0x3c, 0x00, 0x00, 0x00, 0xbe, 0xfe, 0xff, 0xff,
  0x00, 0x00, 0x00, 0x01, 0x10, 0x00, 0x00, 0x00, 0x10, 0x00, 0x00, 0x00,
  0x06, 0x00, 0x00, 0x00, 0x28, 0x00, 0x00, 0x00, 0x30, 0xfe, 0xff, 0xff,
  0x19, 0x00, 0x00, 0x00, 0x73, 0x65, 0x71, 0x75, 0x65, 0x6e, 0x74, 0x69,
  0x61, 0x6c, 0x2f, 0x64, 0x65, 0x6e, 0x73, 0x65, 0x5f, 0x31, 0x2f, 0x4d,
  0x61, 0x74, 0x4d, 0x75, 0x6c, 0x00, 0x00, 0x00, 0x02, 0x00, 0x00, 0x00,
  0x05, 0x00, 0x00, 0x00, 0x08, 0x00, 0x00, 0x00, 0x06, 0xff, 0xff, 0xff,
  0x00, 0x00, 0x00, 0x01, 0x10, 0x00, 0x00, 0x00, 0x10, 0x00, 0x00, 0x00,
  0x05, 0x00, 0x00, 0x00, 0x24, 0x00, 0x00, 0x00, 0x78, 0xfe, 0xff, 0xff,
  0x17, 0x00, 0x00, 0x00, 0x73, 0x65, 0x71, 0x75, 0x65, 0x6e, 0x74, 0x69,
  0x61, 0x6c, 0x2f, 0x64, 0x65, 0x6e, 0x73, 0x65, 0x2f, 0x4d, 0x61, 0x74,
  0x4d, 0x75, 0x6c, 0x00, 0x02, 0x00, 0x00, 0x00, 0x08, 0x00, 0x00, 0x00,
  0x3c, 0x00, 0x00, 0x00, 0x00, 0x00, 0x16, 0x00, 0x1c, 0x00, 0x18, 0x00,
  0x17, 0x00, 0x10, 0x00, 0x0c, 0x00, 0x08, 0x00, 0x00, 0x00, 0x00, 0x00,
  0x00, 0x00, 0x07, 0x00, 0x16, 0x00, 0x00, 0x00, 0x00, 0x00, 0x00, 0x01,
  0x14, 0x00, 0x00, 0x00, 0x14, 0x00, 0x00, 0x00, 0x04, 0x00, 0x00, 0x00,
  0x00, 0x00, 0x00, 0x02, 0x28, 0x00, 0x00, 0x00, 0xd8, 0xfe, 0xff, 0xff,
  0x18, 0x00, 0x00, 0x00, 0x73, 0x65, 0x71, 0x75, 0x65, 0x6e, 0x74, 0x69,
  0x61, 0x6c, 0x2f, 0x66, 0x6c, 0x61, 0x74, 0x74, 0x65, 0x6e, 0x2f, 0x43,
  0x6f, 0x6e, 0x73, 0x74, 0x00, 0x00, 0x00, 0x00, 0x01, 0x00, 0x00, 0x00,
  0x02, 0x00, 0x00, 0x00, 0xaa, 0xff, 0xff, 0xff, 0x00, 0x00, 0x00, 0x01,
  0x10, 0x00, 0x00, 0x00, 0x10, 0x00, 0x00, 0x00, 0x03, 0x00, 0x00, 0x00,
  0x38, 0x00, 0x00, 0x00, 0x1c, 0xff, 0xff, 0xff, 0x29, 0x00, 0x00, 0x00,
  0x73, 0x65, 0x71, 0x75, 0x65, 0x6e, 0x74, 0x69, 0x61, 0x6c, 0x2f, 0x64,
  0x65, 0x6e, 0x73, 0x65, 0x5f, 0x31, 0x2f, 0x42, 0x69, 0x61, 0x73, 0x41,
  0x64, 0x64, 0x2f, 0x52, 0x65, 0x61, 0x64, 0x56, 0x61, 0x72, 0x69, 0x61,
  0x62, 0x6c, 0x65, 0x4f, 0x70, 0x00, 0x00, 0x00, 0x01, 0x00, 0x00, 0x00,
  0x05, 0x00, 0x00, 0x00, 0x00, 0x00, 0x16, 0x00, 0x18, 0x00, 0x14, 0x00,
  0x00, 0x00, 0x10, 0x00, 0x0c, 0x00, 0x08, 0x00, 0x00, 0x00, 0x00, 0x00,
  0x00, 0x00, 0x07, 0x00, 0x16, 0x00, 0x00, 0x00, 0x00, 0x00, 0x00, 0x01,
  0x10, 0x00, 0x00, 0x00, 0x10, 0x00, 0x00, 0x00, 0x02, 0x00, 0x00, 0x00,
  0x34, 0x00, 0x00, 0x00, 0x88, 0xff, 0xff, 0xff, 0x27, 0x00, 0x00, 0x00,
  0x73, 0x65, 0x71, 0x75, 0x65, 0x6e, 0x74, 0x69, 0x61, 0x6c, 0x2f, 0x64,
  0x65, 0x6e, 0x73, 0x65, 0x2f, 0x42, 0x69, 0x61, 0x73, 0x41, 0x64, 0x64,
  0x2f, 0x52, 0x65, 0x61, 0x64, 0x56, 0x61, 0x72, 0x69, 0x61, 0x62, 0x6c,
  0x65, 0x4f, 0x70, 0x00, 0x01, 0x00, 0x00, 0x00, 0x08, 0x00, 0x00, 0x00,
  0x00, 0x00, 0x16, 0x00, 0x1c, 0x00, 0x18, 0x00, 0x00, 0x00, 0x14, 0x00,
  0x10, 0x00, 0x0c, 0x00, 0x00, 0x00, 0x00, 0x00, 0x08, 0x00, 0x07, 0x00,
  0x16, 0x00, 0x00, 0x00, 0x00, 0x00, 0x00, 0x01, 0x14, 0x00, 0x00, 0x00,
  0x20, 0x00, 0x00, 0x00, 0x20, 0x00, 0x00, 0x00, 0x01, 0x00, 0x00, 0x00,
  0x3c, 0x00, 0x00, 0x00, 0x02, 0x00, 0x00, 0x00, 0xff, 0xff, 0xff, 0xff,
  0x3c, 0x00, 0x00, 0x00, 0x04, 0x00, 0x04, 0x00, 0x04, 0x00, 0x00, 0x00,
  0x1f, 0x00, 0x00, 0x00, 0x73, 0x65, 0x72, 0x76, 0x69, 0x6e, 0x67, 0x5f,
  0x64, 0x65, 0x66, 0x61, 0x75, 0x6c, 0x74, 0x5f, 0x66, 0x6c, 0x61, 0x74,
  0x74, 0x65, 0x6e, 0x5f, 0x69, 0x6e, 0x70, 0x75, 0x74, 0x3a, 0x30, 0x00,
  0x02, 0x00, 0x00, 0x00, 0x01, 0x00, 0x00, 0x00, 0x3c, 0x00, 0x00, 0x00,
  0x02, 0x00, 0x00, 0x00, 0x20, 0x00, 0x00, 0x00, 0x04, 0x00, 0x00, 0x00,
  0xf4, 0xff, 0xff, 0xff, 0x09, 0x00, 0x00, 0x00, 0x00, 0x00, 0x00, 0x09,
  0x0c, 0x00, 0x0c, 0x00, 0x0b, 0x00, 0x00, 0x00, 0x00, 0x00, 0x04, 0x00,
  0x0c, 0x00, 0x00, 0x00, 0x16, 0x00, 0x00, 0x00, 0x00, 0x00, 0x00, 0x16
};
unsigned int gesture_model_tflite_len = 3912;
