unsigned char gesture_model_tflite[] = {
  0x1c, 0x00, 0x00, 0x00, 0x54, 0x46, 0x4c, 0x33, 0x14, 0x00, 0x20, 0x00,
  0x1c, 0x00, 0x18, 0x00, 0x14, 0x00, 0x10, 0x00, 0x0c, 0x00, 0x00, 0x00,
  0x08, 0x00, 0x04, 0x00, 0x14, 0x00, 0x00, 0x00, 0x1c, 0x00, 0x00, 0x00,
  0x88, 0x00, 0x00, 0x00, 0xe0, 0x00, 0x00, 0x00, 0xfc, 0x09, 0x00, 0x00,
  0x0c, 0x0a, 0x00, 0x00, 0x6c, 0x0f, 0x00, 0x00, 0x03, 0x00, 0x00, 0x00,
  0x01, 0x00, 0x00, 0x00, 0x04, 0x00, 0x00, 0x00, 0xb6, 0xf5, 0xff, 0xff,
  0x0c, 0x00, 0x00, 0x00, 0x1c, 0x00, 0x00, 0x00, 0x38, 0x00, 0x00, 0x00,
  0x0f, 0x00, 0x00, 0x00, 0x73, 0x65, 0x72, 0x76, 0x69, 0x6e, 0x67, 0x5f,
  0x64, 0x65, 0x66, 0x61, 0x75, 0x6c, 0x74, 0x00, 0x01, 0x00, 0x00, 0x00,
  0x04, 0x00, 0x00, 0x00, 0x94, 0xff, 0xff, 0xff, 0x09, 0x00, 0x00, 0x00,
  0x04, 0x00, 0x00, 0x00, 0x07, 0x00, 0x00, 0x00, 0x64, 0x65, 0x6e, 0x73,
  0x65, 0x5f, 0x31, 0x00, 0x01, 0x00, 0x00, 0x00, 0x04, 0x00, 0x00, 0x00,
  0xc2, 0xf6, 0xff, 0xff, 0x04, 0x00, 0x00, 0x00, 0x0d, 0x00, 0x00, 0x00,
  0x66, 0x6c, 0x61, 0x74, 0x74, 0x65, 0x6e, 0x5f, 0x69, 0x6e, 0x70, 0x75,
  0x74, 0x00, 0x00, 0x00, 0x02, 0x00, 0x00, 0x00, 0x34, 0x00, 0x00, 0x00,
  0x04, 0x00, 0x00, 0x00, 0xdc, 0xff, 0xff, 0xff, 0x0c, 0x00, 0x00, 0x00,
  0x04, 0x00, 0x00, 0x00, 0x13, 0x00, 0x00, 0x00, 0x43, 0x4f, 0x4e, 0x56,
  0x45, 0x52, 0x53, 0x49, 0x4f, 0x4e, 0x5f, 0x4d, 0x45, 0x54, 0x41, 0x44,
  0x41, 0x54, 0x41, 0x00, 0x08, 0x00, 0x0c, 0x00, 0x08, 0x00, 0x04, 0x00,
  0x08, 0x00, 0x00, 0x00, 0x0b, 0x00, 0x00, 0x00, 0x04, 0x00, 0x00, 0x00,
  0x13, 0x00, 0x00, 0x00, 0x6d, 0x69, 0x6e, 0x5f, 0x72, 0x75, 0x6e, 0x74,
  0x69, 0x6d, 0x65, 0x5f, 0x76, 0x65, 0x72, 0x73, 0x69, 0x6f, 0x6e, 0x00,
  0x0d, 0x00, 0x00, 0x00, 0x18, 0x09, 0x00, 0x00, 0x10, 0x09, 0x00, 0x00,
  0xc0, 0x08, 0x00, 0x00, 0x68, 0x08, 0x00, 0x00, 0x54, 0x08, 0x00, 0x00,
  0x3c, 0x08, 0x00, 0x00, 0xac, 0x00, 0x00, 0x00, 0xa4, 0x00, 0x00, 0x00,
  0x9c, 0x00, 0x00, 0x00, 0x94, 0x00, 0x00, 0x00, 0x8c, 0x00, 0x00, 0x00,
  0x6c, 0x00, 0x00, 0x00, 0x04, 0x00, 0x00, 0x00, 0x72, 0xf7, 0xff, 0xff,
  0x04, 0x00, 0x00, 0x00, 0x58, 0x00, 0x00, 0x00, 0x0c, 0x00, 0x00, 0x00,
  0x08, 0x00, 0x0e, 0x00, 0x08, 0x00, 0x04, 0x00, 0x08, 0x00, 0x00, 0x00,
  0x10, 0x00, 0x00, 0x00, 0x28, 0x00, 0x00, 0x00, 0x00, 0x00, 0x06, 0x00,
  0x08, 0x00, 0x04, 0x00, 0x06, 0x00, 0x00, 0x00, 0x04, 0x00, 0x00, 0x00,
  0x01, 0x00, 0x00, 0x00, 0xea, 0x03, 0x00, 0x00, 0x00, 0x00, 0x0a, 0x00,
  0x10, 0x00, 0x0c, 0x00, 0x08, 0x00, 0x04, 0x00, 0x0a, 0x00, 0x00, 0x00,
  0x02, 0x00, 0x00, 0x00, 0x02, 0x00, 0x00, 0x00, 0x04, 0x00, 0x00, 0x00,
  0x06, 0x00, 0x00, 0x00, 0x32, 0x2e, 0x31, 0x32, 0x2e, 0x30, 0x00, 0x00,
  0xd6, 0xf7, 0xff, 0xff, 0x04, 0x00, 0x00, 0x00, 0x10, 0x00, 0x00, 0x00,
  0x32, 0x2e, 0x33, 0x2e, 0x30, 0x00, 0x00, 0x00, 0x00, 0x00, 0x00, 0x00,
  0x00, 0x00, 0x00, 0x00, 0x58, 0xf2, 0xff, 0xff, 0x5c, 0xf2, 0xff, 0xff,
  0x60, 0xf2, 0xff, 0xff, 0x64, 0xf2, 0xff, 0xff, 0x02, 0xf8, 0xff, 0xff,
  0x04, 0x00, 0x00, 0x00, 0x80, 0x07, 0x00, 0x00, 0x98, 0x9f, 0x00, 0xdd,
  0x1d, 0xdf, 0xda, 0xbb, 0xb3, 0x32, 0xb7, 0xfc, 0xd8, 0x0d, 0xe6, 0x48,
  0xeb, 0xaf, 0x10, 0xa6, 0x52, 0xde, 0xc3, 0xd2, 0x58, 0xef, 0x9d, 0x34,
  0x5d, 0xab, 0xcc, 0x0b, 0xb1, 0x40, 0xce, 0xfc, 0x4f, 0xdc, 0xb6, 0xa1,
  0xca, 0x2f, 0x53, 0xd1, 0xfc, 0xca, 0xd6, 0xec, 0xa9, 0x44, 0x3c, 0x50,
  0x66, 0x51, 0xad, 0x40, 0x33, 0xc9, 0x22, 0x16, 0x5c, 0x49, 0x3d, 0xa8,
  0xb4, 0xf8, 0x53, 0x2b, 0x50, 0xe4, 0xc8, 0xf3, 0xc4, 0x38, 0xae, 0xa4,
  0x41, 0x1c, 0xb1, 0x5c, 0x06, 0x2b, 0x59, 0x5b, 0x60, 0xff, 0xc7, 0x59,
  0x5f, 0xe3, 0xa7, 0x9e, 0x31, 0x65, 0xcb, 0xb8, 0x24, 0x5c, 0xb2, 0xbe,
  0x1b, 0x2f, 0x45, 0x36, 0x2a, 0xd0, 0x34, 0x05, 0xd2, 0x0c, 0x35, 0x28,
  0x10, 0xbb, 0xd9, 0xc5, 0x1d, 0xbc, 0x2e, 0xef, 0xad, 0xde, 0x0b, 0xd1,
  0xf8, 0x3e, 0xc9, 0x15, 0xcb, 0xcb, 0x34, 0xf2, 0x35, 0xd2, 0xad, 0xc0,
  0x6a, 0x39, 0xb1, 0xea, 0x5f, 0xc4, 0x31, 0x09, 0x47, 0x31, 0x3e, 0xd0,
  0xcc, 0x39, 0x4a, 0xd0, 0x00, 0x4a, 0x27, 0xfe, 0xe9, 0xaf, 0xba, 0x0a,
  0xe3, 0x4d, 0x20, 0xfc, 0x26, 0xeb, 0x44, 0x30, 0x05, 0xa2, 0xb6, 0x49,
  0xc5, 0x53, 0x31, 0x30, 0xdb, 0x59, 0xf0, 0xc1, 0x17, 0xab, 0x68, 0x39,
  0x5e, 0x47, 0x44, 0x2c, 0xb9, 0xf8, 0x12, 0x3d, 0x10, 0x31, 0xbb, 0x13,
  0x10, 0xc0, 0xc6, 0xcb, 0x46, 0x5e, 0xea, 0x57, 0x21, 0xc1, 0xc2, 0xcb,
  0xba, 0x48, 0xb7, 0xb4, 0x2a, 0xe4, 0x56, 0x4c, 0x9f, 0xf6, 0xc6, 0xdf,
  0xb1, 0x4f, 0x18, 0x4f, 0x09, 0x12, 0xea, 0x36, 0xf5, 0xdf, 0x11, 0x1e,
  0xbd, 0xad, 0x4a, 0x38, 0xac, 0x2b, 0x9e, 0xb1, 0x3c, 0x35, 0xbe, 0x41,
  0xff, 0xa3, 0x27, 0xe2, 0x4a, 0x4c, 0xf2, 0x35, 0x13, 0x0d, 0x65, 0x16,
  0x1a, 0x1e, 0x22, 0x38, 0xb1, 0xd8, 0xe3, 0xa9, 0x37, 0xee, 0x3d, 0xd7,
  0xa9, 0x9c, 0x37, 0xc2, 0xd2, 0xbd, 0x27, 0x00, 0xf0, 0xd1, 0x9b, 0x51,
  0xc8, 0x98, 0xa4, 0xe5, 0xf1, 0x39, 0xc7, 0x3c, 0xdd, 0xf8, 0x32, 0xa5,
  0x18, 0x0e, 0x19, 0x4e, 0xee, 0x99, 0xc7, 0x4d, 0x34, 0xb7, 0xfa, 0x44,
  0xf2, 0x55, 0xce, 0x3a, 0x18, 0x1e, 0xe4, 0x94, 0x32, 0x29, 0x00, 0xb6,
  0xb2, 0x2b, 0xb1, 0xb0, 0x4b, 0x12, 0xe3, 0x27, 0xd7, 0x9f, 0xdc, 0xf9,
  0x4c, 0x95, 0xd3, 0xdb, 0xdd, 0xfa, 0xb2, 0x22, 0x27, 0x45, 0xa7, 0x06,
  0xc4, 0x87, 0xe2, 0x84, 0xd2, 0x2a, 0x9f, 0x06, 0x63, 0x89, 0x5b, 0x20,
  0xfd, 0xb1, 0x2a, 0xc3, 0x61, 0x53, 0x20, 0x2f, 0x11, 0xef, 0x24, 0x4e,
  0xd3, 0x0a, 0x04, 0x66, 0x30, 0xe6, 0xfc, 0x0b, 0x1e, 0xdc, 0x0b, 0x15,
  0x3d, 0xa4, 0x47, 0x30, 0xf9, 0xae, 0xa4, 0x58, 0xac, 0x4d, 0x42, 0x41,
  0x5f, 0x29, 0x13, 0x96, 0xe2, 0xab, 0x29, 0x06, 0xf2, 0x39, 0x3f, 0x12,
  0x63, 0xee, 0x4b, 0x21, 0xf6, 0x24, 0x2f, 0x01, 0xa0, 0xef, 0x4e, 0xab,
  0xd4, 0xeb, 0x93, 0xfa, 0x4d, 0xc6, 0x52, 0xb7, 0x42, 0xab, 0x56, 0x52,
  0x5b, 0x58, 0x43, 0xa5, 0xb4, 0xa8, 0x4b, 0xcd, 0x11, 0x40, 0x59, 0x66,
  0xb7, 0xdf, 0xce, 0x2b, 0x36, 0xed, 0x52, 0x69, 0xa4, 0x43, 0x23, 0xdb,
  0xea, 0xc9, 0xd4, 0x0d, 0x1f, 0x1a, 0xde, 0xb9, 0xf9, 0xac, 0x10, 0x62,
  0x48, 0x70, 0xb7, 0xae, 0x4d, 0x48, 0xd3, 0xc9, 0x3a, 0xf8, 0x31, 0xe7,
  0xef, 0xd0, 0xf5, 0x18, 0xb7, 0x9a, 0xc4, 0x05, 0xed, 0x02, 0xae, 0xd6,
  0x97, 0x2e, 0x4d, 0x9b, 0x17, 0x43, 0xd0, 0x55, 0xd6, 0xe6, 0xbe, 0x1e,
  0x18, 0x1c, 0xa8, 0x39, 0x5e, 0xd2, 0xba, 0xb9, 0xec, 0xad, 0xfb, 0xf8,
  0x4a, 0x61, 0x1a, 0xbc, 0xb2, 0x27, 0x51, 0x46, 0x9c, 0xc2, 0xda, 0x28,
  0xc3, 0x20, 0x2a, 0x66, 0x18, 0xbe, 0x20, 0xe6, 0xaa, 0xc3, 0x3c, 0xff,
  0x33, 0x2c, 0xbe, 0x4f, 0xca, 0x2a, 0x21, 0xc6, 0x64, 0x50, 0xc4, 0x4e,
  0xf3, 0xee, 0x03, 0xe0, 0xd9, 0x0a, 0x18, 0xfb, 0x42, 0xc0, 0x59, 0x2c,
  0xf0, 0x47, 0xe9, 0xaf, 0x54, 0x03, 0xb6, 0x50, 0x29, 0x31, 0x52, 0x96,
  0xb9, 0xd6, 0xb2, 0xd8, 0x46, 0xc8, 0xdf, 0x47, 0xa5, 0xcc, 0x1c, 0x51,
  0x10, 0x43, 0xe4, 0x14, 0x52, 0xcc, 0x22, 0x99, 0x4c, 0x6b, 0x5f, 0xba,
  0x2e, 0xac, 0x45, 0xaa, 0xbc, 0x1f, 0xe2, 0xb5, 0xc0, 0x56, 0x3c, 0x4f,
  0x32, 0x5a, 0xdf, 0xd1, 0x4b, 0xbb, 0x51, 0x5d, 0x9d, 0x44, 0xb6, 0x56,
  0x25, 0xe3, 0x00, 0x01, 0x26, 0xb1, 0xe1, 0xad, 0x43, 0x23, 0xda, 0x5d,
  0xca, 0x2f, 0x0a, 0x0a, 0x28, 0x3e, 0x20, 0xa0, 0xd1, 0xad, 0x07, 0x3d,
  0xfd, 0x36, 0x17, 0xb0, 0xfc, 0xe6, 0xdb, 0xa6, 0x6d, 0x62, 0x56, 0x1e,
  0x26, 0xcb, 0x28, 0x05, 0x55, 0xab, 0x49, 0x52, 0x20, 0x10, 0x34, 0x25,
  0xe5, 0x09, 0xd8, 0x67, 0x1e, 0xad, 0x4b, 0x20, 0x27, 0x4f, 0xd2, 0xa3,
  0x23, 0x06, 0x33, 0x28, 0x12, 0x1d, 0x25, 0xa7, 0xb9, 0xaf, 0x25, 0xbd,
  0x32, 0xde, 0xa3, 0x39, 0xed, 0x15, 0x07, 0x38, 0xb3, 0x00, 0x5e, 0x14,
  0xd5, 0xd7, 0xc6, 0x09, 0x5f, 0xc0, 0x4b, 0x89, 0x2c, 0x36, 0xef, 0xfb,
  0x43, 0x1b, 0xd7, 0xb3, 0xe4, 0x57, 0x21, 0xe5, 0xc8, 0xd1, 0xf1, 0x45,
  0xbc, 0x4a, 0xaa, 0xfe, 0xa7, 0x5a, 0x5b, 0x5a, 0xa4, 0xca, 0x12, 0x51,
  0x4d, 0xe1, 0x43, 0xde, 0xda, 0x66, 0x0d, 0x44, 0xf2, 0x62, 0x19, 0xd3,
  0xb3, 0x62, 0xb5, 0xf8, 0x05, 0xe7, 0x45, 0x3d, 0x3e, 0x41, 0xa1, 0x35,
  0xd8, 0xaa, 0xaf, 0xfe, 0x0e, 0xc5, 0x19, 0xc3, 0xf4, 0xad, 0x1e, 0x1d,
  0x10, 0xc3, 0x64, 0x4d, 0xdd, 0x02, 0x4d, 0x0f, 0x03, 0x60, 0x15, 0xdf,
  0x25, 0x22, 0x61, 0x49, 0x19, 0xf8, 0x09, 0xed, 0xc4, 0x22, 0x50, 0x00,
  0x56, 0x50, 0xfa, 0x1d, 0xcc, 0x0e, 0xe3, 0x4f, 0xad, 0xff, 0xc2, 0xc2,
  0x2d, 0xda, 0xcb, 0x42, 0x2f, 0x34, 0x4e, 0x50, 0x0e, 0xc5, 0x32, 0xf0,
  0xca, 0x25, 0xae, 0x25, 0xb6, 0x2a, 0xf5, 0xf9, 0xfe, 0x37, 0x41, 0x3d,
  0xb1, 0x28, 0xea, 0xfa, 0x41, 0xcc, 0x58, 0xb6, 0x02, 0xf6, 0x21, 0x2e,
  0xce, 0x57, 0xc6, 0x37, 0x41, 0x9c, 0x5d, 0x0a, 0xc4, 0x1a, 0xed, 0x3e,
  0x25, 0x2f, 0x2c, 0xe3, 0x0a, 0x2e, 0x41, 0x0e, 0xd4, 0x45, 0xad, 0x28,
  0x99, 0x24, 0xd9, 0xd4, 0x33, 0xdf, 0x04, 0x33, 0x55, 0x3b, 0x04, 0xca,
  0xe0, 0x2f, 0xab, 0x3a, 0x65, 0xed, 0x4e, 0xf6, 0xee, 0x1e, 0x29, 0x48,
  0x1f, 0xa9, 0x27, 0xc2, 0xbc, 0x08, 0x51, 0xf8, 0x08, 0xc5, 0xae, 0xff,
  0x5a, 0xb0, 0x1e, 0x23, 0x38, 0xbe, 0x66, 0x09, 0xa8, 0x27, 0xc4, 0xd1,
  0xb3, 0xac, 0xc0, 0xe6, 0x4e, 0xb7, 0x32, 0x29, 0x3e, 0x22, 0xf5, 0x14,
  0xfb, 0x09, 0x32, 0xe8, 0xc0, 0xab, 0xd8, 0x39, 0xe7, 0xaf, 0xff, 0x0f,
  0xb2, 0xec, 0x31, 0xe5, 0x12, 0xd8, 0x36, 0x61, 0x9b, 0xa7, 0x9c, 0xb7,
  0xd7, 0xd4, 0x00, 0x24, 0xb1, 0xbc, 0x5b, 0x2c, 0xf9, 0xf0, 0x09, 0xb7,
  0x20, 0xc5, 0x2d, 0xf8, 0xbd, 0x5d, 0xe8, 0x4b, 0x15, 0xfc, 0x36, 0x08,
  0xc7, 0x06, 0x3c, 0x1a, 0x5b, 0x3b, 0xd6, 0xcb, 0x9c, 0xcf, 0xfd, 0x57,
  0x18, 0x01, 0x27, 0x39, 0x6d, 0x0d, 0x5e, 0x13, 0xa1, 0x4c, 0x5c, 0xf9,
  0xdf, 0x28, 0xc7, 0x08, 0xf2, 0xf8, 0x5b, 0x36, 0xfa, 0xdb, 0xf9, 0x3f,
  0xec, 0xf0, 0x0a, 0xef, 0x57, 0x50, 0xa1, 0xf6, 0xf4, 0xd9, 0x48, 0x10,
  0x2d, 0x46, 0x15, 0x0a, 0xa9, 0xfc, 0xa1, 0x08, 0xf0, 0x34, 0xf5, 0x4e,
  0x0f, 0x03, 0xb4, 0xc7, 0x06, 0x04, 0xf8, 0xf0, 0xc4, 0x10, 0x35, 0xc7,
  0x33, 0xbd, 0xf5, 0x33, 0xaa, 0x37, 0xe7, 0x28, 0xe4, 0xf5, 0x0a, 0x0d,
  0xc1, 0x40, 0xf5, 0xd4, 0xe2, 0x15, 0xd6, 0xae, 0xbf, 0x10, 0x43, 0xdc,
  0xa7, 0xc9, 0xd5, 0x1e, 0x3a, 0xde, 0x58, 0xf4, 0x18, 0xd5, 0x29, 0xbf,
  0x9d, 0x22, 0xd3, 0xee, 0x3e, 0x3f, 0x46, 0x2d, 0xa1, 0x4e, 0xbd, 0xb3,
  0xab, 0xfc, 0x3a, 0x43, 0xe0, 0x50, 0x17, 0xf5, 0xf7, 0x0e, 0x38, 0xa4,
  0xc3, 0x0e, 0x20, 0xdb, 0xae, 0x28, 0x9e, 0x45, 0x11, 0x06, 0x01, 0xcd,
  0xa5, 0xf3, 0xac, 0x40, 0xaf, 0x20, 0xf9, 0x46, 0xfe, 0x53, 0xbc, 0x50,
  0x9b, 0x3b, 0xc3, 0xe3, 0x32, 0x40, 0x4d, 0x1a, 0x41, 0x66, 0xb4, 0x94,
  0xa2, 0x51, 0x0e, 0x15, 0xaa, 0x18, 0xed, 0x27, 0x23, 0xeb, 0x54, 0xc0,
  0x00, 0xad, 0xa1, 0xf9, 0xbc, 0xc8, 0x2b, 0x58, 0xcf, 0xb7, 0xca, 0xe3,
  0x55, 0x59, 0x92, 0x07, 0x28, 0x98, 0xcc, 0xb3, 0xb2, 0x10, 0xbe, 0x33,
  0x1a, 0x4a, 0xb5, 0xa9, 0xcc, 0x1d, 0x04, 0x02, 0xe8, 0xcf, 0x21, 0x1d,
  0xd3, 0x30, 0x44, 0x45, 0xf0, 0xad, 0x00, 0x45, 0xd1, 0xed, 0x0e, 0x9c,
  0xbe, 0x4d, 0x51, 0x35, 0x46, 0xce, 0xf1, 0xde, 0x2a, 0xb7, 0xd7, 0x4f,
  0x82, 0xae, 0xad, 0x27, 0xf3, 0x00, 0xc0, 0x01, 0x1d, 0xc9, 0xf2, 0x26,
  0x27, 0xcb, 0xf3, 0x11, 0xff, 0x23, 0x2c, 0x52, 0x3a, 0x27, 0x17, 0xb5,
  0xb5, 0x12, 0xb1, 0x1e, 0x64, 0xec, 0x3d, 0x26, 0x26, 0x5b, 0xb2, 0x22,
  0xe1, 0x25, 0xe1, 0x40, 0xc3, 0xa7, 0xba, 0xdf, 0xe8, 0xe3, 0x64, 0x42,
  0xea, 0x3e, 0x36, 0xf3, 0x44, 0xe4, 0x22, 0xc6, 0xc5, 0xf6, 0xca, 0x34,
  0xe3, 0xf5, 0xf1, 0x35, 0xd0, 0xea, 0x35, 0xf7, 0x60, 0x5f, 0xe2, 0x13,
  0x26, 0x34, 0x52, 0xdd, 0xcc, 0x10, 0x01, 0x42, 0xc8, 0x1f, 0xc0, 0x25,
  0xe9, 0xcf, 0xc7, 0xd3, 0xd3, 0x2b, 0x20, 0xd5, 0xd8, 0x1b, 0xb6, 0xd8,
  0x67, 0x30, 0x31, 0xe0, 0xca, 0xbe, 0x16, 0x08, 0xdc, 0x5c, 0x04, 0xe2,
  0xb2, 0xac, 0x1c, 0x21, 0x0e, 0x3d, 0x03, 0x50, 0x06, 0xf8, 0xc3, 0x19,
  0x19, 0xd3, 0xe8, 0xbb, 0x3b, 0x32, 0x25, 0xa5, 0x02, 0xe8, 0xac, 0xec,
  0x23, 0x11, 0x4f, 0x41, 0x50, 0x5b, 0x30, 0x53, 0xd4, 0x1e, 0x65, 0x48,
  0xdc, 0x49, 0x40, 0x52, 0x57, 0xbb, 0x08, 0xd1, 0xae, 0xe8, 0x24, 0xc9,
  0xc0, 0x2e, 0x2d, 0xa9, 0xc5, 0x2e, 0x12, 0xea, 0x46, 0x0b, 0xfd, 0x23,
  0x53, 0xd3, 0xda, 0xde, 0xad, 0xdc, 0xe8, 0xd1, 0x34, 0xb9, 0x45, 0xeb,
  0xe5, 0xdf, 0xcf, 0x39, 0x17, 0x20, 0x44, 0x63, 0x13, 0x59, 0xc5, 0xe1,
  0xb4, 0xf1, 0xe3, 0xe3, 0x9d, 0xb6, 0x4d, 0x13, 0xb0, 0x50, 0x53, 0xe3,
  0x27, 0x2a, 0x24, 0xe3, 0xa7, 0x38, 0xc0, 0x6d, 0x50, 0xb0, 0x16, 0x2c,
  0x6a, 0x36, 0x32, 0xf3, 0xc9, 0x88, 0x15, 0xca, 0xfe, 0xa7, 0x2e, 0x00,
  0x41, 0xe6, 0xd9, 0xc2, 0xcb, 0x4e, 0xfa, 0xf9, 0xb4, 0x13, 0x9a, 0xea,
  0xf8, 0x27, 0xa2, 0xe9, 0x13, 0xc1, 0x0c, 0x64, 0xdd, 0xdf, 0xf7, 0x1f,
  0xea, 0x10, 0xf2, 0xb2, 0x4d, 0xd7, 0xac, 0x3b, 0x17, 0x42, 0xbe, 0x9f,
  0x3a, 0xb9, 0x4d, 0x1b, 0x29, 0xa8, 0x0f, 0xd4, 0x04, 0x2e, 0xa5, 0x03,
  0xba, 0x02, 0xb0, 0xcc, 0xf7, 0xea, 0x47, 0x3e, 0x05, 0x17, 0xc3, 0xa3,
  0x29, 0xe8, 0xac, 0xd5, 0xc1, 0x35, 0xe2, 0x15, 0x2a, 0x28, 0xad, 0x12,
  0xe5, 0x99, 0x32, 0x66, 0x08, 0xc4, 0x0d, 0xf1, 0x23, 0xe7, 0xc8, 0x36,
  0xeb, 0xc0, 0x11, 0x15, 0xde, 0xc1, 0xab, 0x9c, 0xed, 0xfc, 0x2d, 0x31,
  0xf2, 0x97, 0x40, 0x4b, 0x44, 0x40, 0xea, 0x9c, 0xd6, 0x5f, 0x6e, 0xd2,
  0xd7, 0xe5, 0x2d, 0x6f, 0x6b, 0xd2, 0x11, 0x36, 0xd1, 0x26, 0x34, 0x2d,
  0x2c, 0x25, 0xde, 0x1c, 0xe3, 0x19, 0xad, 0x03, 0x03, 0x4c, 0xca, 0xa6,
  0xb6, 0xff, 0xcd, 0x40, 0xeb, 0x3b, 0xec, 0x46, 0xb9, 0x0e, 0xe7, 0x5a,
  0xb4, 0x3d, 0x10, 0xee, 0xb3, 0xd2, 0xe4, 0xca, 0x3b, 0x27, 0xfe, 0x5f,
  0x11, 0x15, 0x51, 0x6a, 0xc1, 0xc2, 0x1d, 0xbe, 0x0e, 0xdf, 0x08, 0xee,
  0xdf, 0xe0, 0xcf, 0x10, 0xcb, 0xdc, 0x16, 0x19, 0xeb, 0xfd, 0x1d, 0xe1,
  0x27, 0x50, 0xdd, 0x39, 0xb8, 0x31, 0x48, 0x4c, 0x1c, 0x1f, 0x29, 0x9c,
  0x44, 0xa6, 0xff, 0x3f, 0x98, 0xda, 0x47, 0x03, 0x51, 0x4b, 0x5d, 0x3a,
  0x2e, 0xd6, 0x19, 0x53, 0x2c, 0xfc, 0xed, 0x0c, 0x31, 0x29, 0x2d, 0xb0,
  0x49, 0x25, 0x33, 0x39, 0x2f, 0xcc, 0xe1, 0x33, 0xc3, 0xe9, 0x05, 0x26,
  0xc0, 0xdd, 0xab, 0x3d, 0x45, 0x37, 0x74, 0x2a, 0x20, 0xd5, 0xb8, 0xd9,
  0xf5, 0xfd, 0xf3, 0x61, 0xe6, 0xc0, 0xa1, 0xd9, 0xf8, 0xb6, 0x23, 0x98,
  0x4e, 0x13, 0xfa, 0xd7, 0xec, 0x3f, 0x3a, 0x22, 0xc4, 0x1f, 0x42, 0x51,
  0xce, 0xea, 0x3c, 0x52, 0xdb, 0x54, 0xcb, 0x97, 0x17, 0x13, 0x19, 0x40,
  0xc0, 0xfb, 0x56, 0xe5, 0xc5, 0xf4, 0x4e, 0x3e, 0x3a, 0xa8, 0x1a, 0xe2,
  0x2b, 0x9d, 0x2d, 0x19, 0xb9, 0xd7, 0x1b, 0x56, 0xf3, 0xbe, 0x36, 0x09,
  0xc5, 0x03, 0xe3, 0xa1, 0xa0, 0x45, 0x3c, 0x02, 0xec, 0xb2, 0x3f, 0x10,
  0x20, 0x47, 0xb9, 0x2f, 0xd3, 0xc6, 0xdd, 0x43, 0xc3, 0x5c, 0xde, 0xd7,
  0x5d, 0x13, 0xa9, 0xbe, 0x1e, 0x4c, 0x44, 0xe2, 0xf8, 0xbe, 0xa4, 0x0c,
  0xe7, 0xf7, 0x1a, 0x04, 0xa2, 0xc8, 0x4b, 0x59, 0xc8, 0xfb, 0xc1, 0xe6,
  0x3b, 0x92, 0x23, 0xf3, 0x65, 0x5f, 0xe6, 0x9a, 0x68, 0xd8, 0xce, 0xe2,
  0xd3, 0x22, 0x64, 0x0b, 0x28, 0x06, 0x04, 0x2d, 0xfd, 0x2e, 0xd2, 0xb0,
  0x30, 0x59, 0x65, 0xf0, 0xd5, 0x0f, 0xc2, 0xa9, 0x59, 0x0c, 0xac, 0x58,
  0xc5, 0x4c, 0x5f, 0x39, 0xe9, 0xe5, 0x4c, 0xa7, 0x50, 0x48, 0xb2, 0x59,
  0x15, 0xde, 0xd9, 0x38, 0x32, 0x47, 0x7f, 0x3d, 0x57, 0xb5, 0xdd, 0x3c,
  0x03, 0xa1, 0x3d, 0x24, 0x21, 0xff, 0x2e, 0xef, 0xf7, 0x5a, 0xe2, 0x23,
  0xf6, 0x1b, 0x9b, 0x40, 0xbb, 0xf9, 0xf9, 0xbb, 0xa0, 0x94, 0x00, 0x1b,
  0x6d, 0x0c, 0x10, 0xf9, 0x45, 0x33, 0x9f, 0xa0, 0x3d, 0xcd, 0x17, 0x3a,
  0xb9, 0x07, 0xe0, 0x84, 0xf1, 0x29, 0xd7, 0x01, 0x13, 0xc0, 0xdc, 0xcb,
  0x3f, 0xb9, 0x5d, 0xc3, 0xca, 0xd1, 0xe1, 0xc3, 0xc2, 0xac, 0xec, 0x12,
  0xb2, 0x29, 0xe1, 0x0a, 0x34, 0x4b, 0xaa, 0xca, 0x8e, 0xff, 0xff, 0xff,
  0x04, 0x00, 0x00, 0x00, 0x08, 0x00, 0x00, 0x00, 0xff, 0xff, 0xff, 0xff,
  0x78, 0x00, 0x00, 0x00, 0xa2, 0xff, 0xff, 0xff, 0x04, 0x00, 0x00, 0x00,
  0x04, 0x00, 0x00, 0x00, 0x27, 0x6f, 0x82, 0xbc, 0xb2, 0xff, 0xff, 0xff,
  0x04, 0x00, 0x00, 0x00, 0x40, 0x00, 0x00, 0x00, 0x08, 0xb7, 0x40, 0xbd,
  0x76, 0x26, 0x76, 0x3c, 0x5d, 0x2a, 0x4e, 0xbc, 0x72, 0xcd, 0x3b, 0xbc,
  0xa6, 0xc9, 0xa9, 0xbc, 0x21, 0x6e, 0x13, 0xbd, 0xe9, 0x8f, 0xa9, 0xbb,
  0x66, 0xd4, 0x38, 0xbc, 0x24, 0xd5, 0xd7, 0xbb, 0xd8, 0xf4, 0xc2, 0x3a,
  0xcc, 0x68, 0x3c, 0x3c, 0xa6, 0xd2, 0x4a, 0x3c, 0xa2, 0x8f, 0x07, 0x3d,
  0xf3, 0xf8, 0x7e, 0xbc, 0x5f, 0xd0, 0xb9, 0xbb, 0x8b, 0x24, 0xf5, 0x3a,
  0x00, 0x00, 0x06, 0x00, 0x08, 0x00, 0x04, 0x00, 0x06, 0x00, 0x00, 0x00,
  0x04, 0x00, 0x00, 0x00, 0x40, 0x00, 0x00, 0x00, 0xcf, 0x61, 0xe9, 0x3d,
  0xba, 0x4f, 0xa8, 0xbe, 0xb2, 0x07, 0x86, 0x3d, 0x88, 0x10, 0x17, 0xbf,
  0x33, 0xc1, 0x0f, 0x3f, 0xc8, 0x7d, 0xed, 0x3d, 0x78, 0x08, 0x62, 0x3e,
  0xf1, 0x79, 0x13, 0xbf, 0xd4, 0xa5, 0x36, 0xbe, 0xdf, 0x04, 0x12, 0xbf,
  0x9a, 0xd7, 0x10, 0xbf, 0x36, 0x64, 0x7f, 0xbe, 0x2f, 0x17, 0x5c, 0x3e,
  0x09, 0xde, 0xec, 0xbe, 0x28, 0x12, 0xa0, 0x3d, 0xb6, 0xad, 0xab, 0x3e,
  0xb8, 0xfa, 0xff, 0xff, 0xbc, 0xfa, 0xff, 0xff, 0x0f, 0x00, 0x00, 0x00,
  0x4d, 0x4c, 0x49, 0x52, 0x20, 0x43, 0x6f, 0x6e, 0x76, 0x65, 0x72, 0x74,
  0x65, 0x64, 0x2e, 0x00, 0x01, 0x00, 0x00, 0x00, 0x14, 0x00, 0x00, 0x00,
  0x00, 0x00, 0x0e, 0x00, 0x18, 0x00, 0x14, 0x00, 0x10, 0x00, 0x0c, 0x00,
  0x08, 0x00, 0x04, 0x00, 0x0e, 0x00, 0x00, 0x00, 0x14, 0x00, 0x00, 0x00,
  0x1c, 0x00, 0x00, 0x00, 0x0c, 0x01, 0x00, 0x00, 0x10, 0x01, 0x00, 0x00,
  0x14, 0x01, 0x00, 0x00, 0x04, 0x00, 0x00, 0x00, 0x6d, 0x61, 0x69, 0x6e,
  0x00, 0x00, 0x00, 0x00, 0x04, 0x00, 0x00, 0x00, 0xd0, 0x00, 0x00, 0x00,
  0x7c, 0x00, 0x00, 0x00, 0x34, 0x00, 0x00, 0x00, 0x10, 0x00, 0x00, 0x00,
  0x00, 0x00, 0x0a, 0x00, 0x10, 0x00, 0x0c, 0x00, 0x08, 0x00, 0x04, 0x00,
  0x0a, 0x00, 0x00, 0x00, 0x0c, 0x00, 0x00, 0x00, 0x10, 0x00, 0x00, 0x00,
  0x02, 0x00, 0x00, 0x00, 0x01, 0x00, 0x00, 0x00, 0x09, 0x00, 0x00, 0x00,
  0x01, 0x00, 0x00, 0x00, 0x08, 0x00, 0x00, 0x00, 0xca, 0xff, 0xff, 0xff,
  0x14, 0x00, 0x00, 0x00, 0x00, 0x00, 0x00, 0x08, 0x10, 0x00, 0x00, 0x00,
  0x14, 0x00, 0x00, 0x00, 0x01, 0x00, 0x00, 0x00, 0x68, 0xfb, 0xff, 0xff,
  0x01, 0x00, 0x00, 0x00, 0x08, 0x00, 0x00, 0x00, 0x03, 0x00, 0x00, 0x00,
  0x07, 0x00, 0x00, 0x00, 0x01, 0x00, 0x00, 0x00, 0x03, 0x00, 0x00, 0x00,
  0x00, 0x00, 0x0e, 0x00, 0x18, 0x00, 0x14, 0x00, 0x10, 0x00, 0x0c, 0x00,
  0x0b, 0x00, 0x04, 0x00, 0x0e, 0x00, 0x00, 0x00, 0x20, 0x00, 0x00, 0x00,
  0x00, 0x00, 0x00, 0x08, 0x20, 0x00, 0x00, 0x00, 0x24, 0x00, 0x00, 0x00,
  0x01, 0x00, 0x00, 0x00, 0x0c, 0x00, 0x08, 0x00, 0x07, 0x00, 0x00, 0x00,
  0x00, 0x00, 0x06, 0x00, 0x0c, 0x00, 0x00, 0x00, 0x00, 0x00, 0x01, 0x01,
  0x01, 0x00, 0x00, 0x00, 0x07, 0x00, 0x00, 0x00, 0x03, 0x00, 0x00, 0x00,
  0x06, 0x00, 0x00, 0x00, 0x05, 0x00, 0x00, 0x00, 0x02, 0x00, 0x00, 0x00,
  0x00, 0x00, 0x0a, 0x00, 0x0c, 0x00, 0x00, 0x00, 0x08, 0x00, 0x04, 0x00,
  0x0a, 0x00, 0x00, 0x00, 0x08, 0x00, 0x00, 0x00, 0x0c, 0x00, 0x00, 0x00,
  0x01, 0x00, 0x00, 0x00, 0x06, 0x00, 0x00, 0x00, 0x02, 0x00, 0x00, 0x00,
  0x00, 0x00, 0x00, 0x00, 0x04, 0x00, 0x00, 0x00, 0x01, 0x00, 0x00, 0x00,
  0x09, 0x00, 0x00, 0x00, 0x01, 0x00, 0x00, 0x00, 0x00, 0x00, 0x00, 0x00,
  0x0a, 0x00, 0x00, 0x00, 0xc0, 0x03, 0x00, 0x00, 0x5c, 0x03, 0x00, 0x00,
  0xf0, 0x02, 0x00, 0x00, 0x98, 0x02, 0x00, 0x00, 0x4c, 0x02, 0x00, 0x00,
  0xbc, 0x01, 0x00, 0x00, 0x60, 0x01, 0x00, 0x00, 0xd8, 0x00, 0x00, 0x00,
  0x60, 0x00, 0x00, 0x00, 0x04, 0x00, 0x00, 0x00, 0x7e, 0xfc, 0xff, 0xff,
  0x00, 0x00, 0x00, 0x01, 0x14, 0x00, 0x00, 0x00, 0x1c, 0x00, 0x00, 0x00,
  0x1c, 0x00, 0x00, 0x00, 0x0a, 0x00, 0x00, 0x00, 0x34, 0x00, 0x00, 0x00,
  0x02, 0x00, 0x00, 0x00, 0xff, 0xff, 0xff, 0xff, 0x01, 0x00, 0x00, 0x00,
  0x68, 0xfc, 0xff, 0xff, 0x19, 0x00, 0x00, 0x00, 0x53, 0x74, 0x61, 0x74,
  0x65, 0x66, 0x75, 0x6c, 0x50, 0x61, 0x72, 0x74, 0x69, 0x74, 0x69, 0x6f,
  0x6e, 0x65, 0x64, 0x43, 0x61, 0x6c, 0x6c, 0x3a, 0x30, 0x00, 0x00, 0x00,
  0x02, 0x00, 0x00, 0x00, 0x01, 0x00, 0x00, 0x00, 0x01, 0x00, 0x00, 0x00,
  0xd6, 0xfc, 0xff, 0xff, 0x00, 0x00, 0x00, 0x01, 0x14, 0x00, 0x00, 0x00,
  0x1c, 0x00, 0x00, 0x00, 0x1c, 0x00, 0x00, 0x00, 0x09, 0x00, 0x00, 0x00,
  0x50, 0x00, 0x00, 0x00, 0x02, 0x00, 0x00, 0x00, 0xff, 0xff, 0xff, 0xff,
  0x01, 0x00, 0x00, 0x00, 0xc0, 0xfc, 0xff, 0xff, 0x34, 0x00, 0x00, 0x00,
  0x73, 0x65, 0x71, 0x75, 0x65, 0x6e, 0x74, 0x69, 0x61, 0x6c, 0x2f, 0x64,
  0x65, 0x6e, 0x73, 0x65, 0x5f, 0x31, 0x2f, 0x4d, 0x61, 0x74, 0x4d, 0x75,
  0x6c, 0x3b, 0x73, 0x65, 0x71, 0x75, 0x65, 0x6e, 0x74, 0x69, 0x61, 0x6c,
  0x2f, 0x64, 0x65, 0x6e, 0x73, 0x65, 0x5f, 0x31, 0x2f, 0x42, 0x69, 0x61,
  0x73, 0x41, 0x64, 0x64, 0x00, 0x00, 0x00, 0x00, 0x02, 0x00, 0x00, 0x00,
  0x01, 0x00, 0x00, 0x00, 0x01, 0x00, 0x00, 0x00, 0x4a, 0xfd, 0xff, 0xff,
  0x00, 0x00, 0x00, 0x01, 0x14, 0x00, 0x00, 0x00, 0x1c, 0x00, 0x00, 0x00,
  0x1c, 0x00, 0x00, 0x00, 0x08, 0x00, 0x00, 0x00, 0x60, 0x00, 0x00, 0x00,
  0x02, 0x00, 0x00, 0x00, 0xff, 0xff, 0xff, 0xff, 0x10, 0x00, 0x00, 0x00,
  0x34, 0xfd, 0xff, 0xff, 0x46, 0x00, 0x00, 0x00, 0x73, 0x65, 0x71, 0x75,
  0x65, 0x6e, 0x74, 0x69, 0x61, 0x6c, 0x2f, 0x64, 0x65, 0x6e, 0x73, 0x65,
  0x2f, 0x4d, 0x61, 0x74, 0x4d, 0x75, 0x6c, 0x3b, 0x73, 0x65, 0x71, 0x75,
  0x65, 0x6e, 0x74, 0x69, 0x61, 0x6c, 0x2f, 0x64, 0x65, 0x6e, 0x73, 0x65,
  0x2f, 0x52, 0x65, 0x6c, 0x75, 0x3b, 0x73, 0x65, 0x71, 0x75, 0x65, 0x6e,
  0x74, 0x69, 0x61, 0x6c, 0x2f, 0x64, 0x65, 0x6e, 0x73, 0x65, 0x2f, 0x42,
  0x69, 0x61, 0x73, 0x41, 0x64, 0x64, 0x00, 0x00, 0x02, 0x00, 0x00, 0x00,
  0x01, 0x00, 0x00, 0x00, 0x10, 0x00, 0x00, 0x00, 0xce, 0xfd, 0xff, 0xff,
  0x00, 0x00, 0x00, 0x01, 0x14, 0x00, 0x00, 0x00, 0x1c, 0x00, 0x00, 0x00,
  0x1c, 0x00, 0x00, 0x00, 0x07, 0x00, 0x00, 0x00, 0x34, 0x00, 0x00, 0x00,
  0x02, 0x00, 0x00, 0x00, 0xff, 0xff, 0xff, 0xff, 0x78, 0x00, 0x00, 0x00,
  0xb8, 0xfd, 0xff, 0xff, 0x1a, 0x00, 0x00, 0x00, 0x73, 0x65, 0x71, 0x75,
  0x65, 0x6e, 0x74, 0x69, 0x61, 0x6c, 0x2f, 0x66, 0x6c, 0x61, 0x74, 0x74,
  0x65, 0x6e, 0x2f, 0x52, 0x65, 0x73, 0x68, 0x61, 0x70, 0x65, 0x00, 0x00,
  0x02, 0x00, 0x00, 0x00, 0x01, 0x00, 0x00, 0x00, 0x78, 0x00, 0x00, 0x00,
  0x8a, 0xff, 0xff, 0xff, 0x00, 0x00, 0x00, 0x01, 0x20, 0x00, 0x00, 0x00,
  0x40, 0x00, 0x00, 0x00, 0x06, 0x00, 0x00, 0x00, 0x00, 0x00, 0x00, 0x09,
  0x50, 0x00, 0x00, 0x00, 0x0c, 0x00, 0x0c, 0x00, 0x00, 0x00, 0x00, 0x00,
  0x08, 0x00, 0x04, 0x00, 0x0c, 0x00, 0x00, 0x00, 0x08, 0x00, 0x00, 0x00,
  0x14, 0x00, 0x00, 0x00, 0x01, 0x00, 0x00, 0x00, 0x00, 0x00, 0x00, 0x00,
  0x00, 0x00, 0x00, 0x00, 0x00, 0x00, 0x00, 0x00, 0x01, 0x00, 0x00, 0x00,
  0xb0, 0x73, 0x0a, 0x3b, 0x17, 0x00, 0x00, 0x00, 0x73, 0x65, 0x71, 0x75,
  0x65, 0x6e, 0x74, 0x69, 0x61, 0x6c, 0x2f, 0x64, 0x65, 0x6e, 0x73, 0x65,
  0x2f, 0x4d, 0x61, 0x74, 0x4d, 0x75, 0x6c, 0x00, 0x02, 0x00, 0x00, 0x00,
  0x10, 0x00, 0x00, 0x00, 0x78, 0x00, 0x00, 0x00, 0x00, 0x00, 0x16, 0x00,
  0x1c, 0x00, 0x18, 0x00, 0x17, 0x00, 0x10, 0x00, 0x0c, 0x00, 0x08, 0x00,
  0x00, 0x00, 0x00, 0x00, 0x00, 0x00, 0x07, 0x00, 0x16, 0x00, 0x00, 0x00,
  0x00, 0x00, 0x00, 0x01, 0x14, 0x00, 0x00, 0x00, 0x14, 0x00, 0x00, 0x00,
  0x05, 0x00, 0x00, 0x00, 0x00, 0x00, 0x00, 0x02, 0x28, 0x00, 0x00, 0x00,
  0x90, 0xfe, 0xff, 0xff, 0x18, 0x00, 0x00, 0x00, 0x73, 0x65, 0x71, 0x75,
  0x65, 0x6e, 0x74, 0x69, 0x61, 0x6c, 0x2f, 0x66, 0x6c, 0x61, 0x74, 0x74,
  0x65, 0x6e, 0x2f, 0x43, 0x6f, 0x6e, 0x73, 0x74, 0x00, 0x00, 0x00, 0x00,
  0x01, 0x00, 0x00, 0x00, 0x02, 0x00, 0x00, 0x00, 0x5a, 0xff, 0xff, 0xff,
  0x00, 0x00, 0x00, 0x01, 0x10, 0x00, 0x00, 0x00, 0x10, 0x00, 0x00, 0x00,
  0x04, 0x00, 0x00, 0x00, 0x38, 0x00, 0x00, 0x00, 0xd4, 0xfe, 0xff, 0xff,
  0x29, 0x00, 0x00, 0x00, 0x73, 0x65, 0x71, 0x75, 0x65, 0x6e, 0x74, 0x69,
  0x61, 0x6c, 0x2f, 0x64, 0x65, 0x6e, 0x73, 0x65, 0x5f, 0x31, 0x2f, 0x42,
  0x69, 0x61, 0x73, 0x41, 0x64, 0x64, 0x2f, 0x52, 0x65, 0x61, 0x64, 0x56,
  0x61, 0x72, 0x69, 0x61, 0x62, 0x6c, 0x65, 0x4f, 0x70, 0x00, 0x00, 0x00,
  0x01, 0x00, 0x00, 0x00, 0x01, 0x00, 0x00, 0x00, 0xae, 0xff, 0xff, 0xff,
  0x00, 0x00, 0x00, 0x01, 0x10, 0x00, 0x00, 0x00, 0x10, 0x00, 0x00, 0x00,
  0x03, 0x00, 0x00, 0x00, 0x34, 0x00, 0x00, 0x00, 0x28, 0xff, 0xff, 0xff,
  0x27, 0x00, 0x00, 0x00, 0x73, 0x65, 0x71, 0x75, 0x65, 0x6e, 0x74, 0x69,
  0x61, 0x6c, 0x2f, 0x64, 0x65, 0x6e, 0x73, 0x65, 0x2f, 0x42, 0x69, 0x61,
  0x73, 0x41, 0x64, 0x64, 0x2f, 0x52, 0x65, 0x61, 0x64, 0x56, 0x61, 0x72,
  0x69, 0x61, 0x62, 0x6c, 0x65, 0x4f, 0x70, 0x00, 0x01, 0x00, 0x00, 0x00,
  0x10, 0x00, 0x00, 0x00, 0x00, 0x00, 0x16, 0x00, 0x18, 0x00, 0x14, 0x00,
  0x00, 0x00, 0x10, 0x00, 0x0c, 0x00, 0x08, 0x00, 0x00, 0x00, 0x00, 0x00,
  0x00, 0x00, 0x07, 0x00, 0x16, 0x00, 0x00, 0x00, 0x00, 0x00, 0x00, 0x01,
  0x10, 0x00, 0x00, 0x00, 0x10, 0x00, 0x00, 0x00, 0x02, 0x00, 0x00, 0x00,
  0x28, 0x00, 0x00, 0x00, 0x90, 0xff, 0xff, 0xff, 0x19, 0x00, 0x00, 0x00,
  0x73, 0x65, 0x71, 0x75, 0x65, 0x6e, 0x74, 0x69, 0x61, 0x6c, 0x2f, 0x64,
  0x65, 0x6e, 0x73, 0x65, 0x5f, 0x31, 0x2f, 0x4d, 0x61, 0x74, 0x4d, 0x75,
  0x6c, 0x00, 0x00, 0x00, 0x02, 0x00, 0x00, 0x00, 0x01, 0x00, 0x00, 0x00,
  0x10, 0x00, 0x00, 0x00, 0x00, 0x00, 0x16, 0x00, 0x1c, 0x00, 0x18, 0x00,
  0x00, 0x00, 0x14, 0x00, 0x10, 0x00, 0x0c, 0x00, 0x00, 0x00, 0x00, 0x00,
  0x08, 0x00, 0x07, 0x00, 0x16, 0x00, 0x00, 0x00, 0x00, 0x00, 0x00, 0x01,
  0x14, 0x00, 0x00, 0x00, 0x20, 0x00, 0x00, 0x00, 0x20, 0x00, 0x00, 0x00,
  0x01, 0x00, 0x00, 0x00, 0x3c, 0x00, 0x00, 0x00, 0x02, 0x00, 0x00, 0x00,
  0xff, 0xff, 0xff, 0xff, 0x78, 0x00, 0x00, 0x00, 0x04, 0x00, 0x04, 0x00,
  0x04, 0x00, 0x00, 0x00, 0x1f, 0x00, 0x00, 0x00, 0x73, 0x65, 0x72, 0x76,
  0x69, 0x6e, 0x67, 0x5f, 0x64, 0x65, 0x66, 0x61, 0x75, 0x6c, 0x74, 0x5f,
  0x66, 0x6c, 0x61, 0x74, 0x74, 0x65, 0x6e, 0x5f, 0x69, 0x6e, 0x70, 0x75,
  0x74, 0x3a, 0x30, 0x00, 0x02, 0x00, 0x00, 0x00, 0x01, 0x00, 0x00, 0x00,
  0x78, 0x00, 0x00, 0x00, 0x03, 0x00, 0x00, 0x00, 0x40, 0x00, 0x00, 0x00,
  0x20, 0x00, 0x00, 0x00, 0x04, 0x00, 0x00, 0x00, 0xd8, 0xff, 0xff, 0xff,
  0x0e, 0x00, 0x00, 0x00, 0x00, 0x00, 0x00, 0x0e, 0x0c, 0x00, 0x10, 0x00,
  0x0f, 0x00, 0x00, 0x00, 0x08, 0x00, 0x04, 0x00, 0x0c, 0x00, 0x00, 0x00,
  0x09, 0x00, 0x00, 0x00, 0x09, 0x00, 0x00, 0x00, 0x00, 0x00, 0x00, 0x09,
  0x0c, 0x00, 0x0c, 0x00, 0x0b, 0x00, 0x00, 0x00, 0x00, 0x00, 0x04, 0x00,
  0x0c, 0x00, 0x00, 0x00, 0x16, 0x00, 0x00, 0x00, 0x00, 0x00, 0x00, 0x16
};
unsigned int gesture_model_tflite_len = 4080;
