unsigned char gesture_model_tflite[] = {
  0x1c, 0x00, 0x00, 0x00, 0x54, 0x46, 0x4c, 0x33, 0x14, 0x00, 0x20, 0x00,
  0x1c, 0x00, 0x18, 0x00, 0x14, 0x00, 0x10, 0x00, 0x0c, 0x00, 0x00, 0x00,
  0x08, 0x00, 0x04, 0x00, 0x14, 0x00, 0x00, 0x00, 0x1c, 0x00, 0x00, 0x00,
  0x88, 0x00, 0x00, 0x00, 0xe0, 0x00, 0x00, 0x00, 0x7c, 0x11, 0x00, 0x00,
  0x8c, 0x11, 0x00, 0x00, 0xec, 0x16, 0x00, 0x00, 0x03, 0x00, 0x00, 0x00,
  0x01, 0x00, 0x00, 0x00, 0x04, 0x00, 0x00, 0x00, 0x36, 0xee, 0xff, 0xff,
  0x0c, 0x00, 0x00, 0x00, 0x1c, 0x00, 0x00, 0x00, 0x38, 0x00, 0x00, 0x00,
  0x0f, 0x00, 0x00, 0x00, 0x73, 0x65, 0x72, 0x76, 0x69, 0x6e, 0x67, 0x5f,
  0x64, 0x65, 0x66, 0x61, 0x75, 0x6c, 0x74, 0x00, 0x01, 0x00, 0x00, 0x00,
  0x04, 0x00, 0x00, 0x00, 0x94, 0xff, 0xff, 0xff, 0x09, 0x00, 0x00, 0x00,
  0x04, 0x00, 0x00, 0x00, 0x07, 0x00, 0x00, 0x00, 0x64, 0x65, 0x6e, 0x73,
  0x65, 0x5f, 0x31, 0x00, 0x01, 0x00, 0x00, 0x00, 0x04, 0x00, 0x00, 0x00,
  0x42, 0xef, 0xff, 0xff, 0x04, 0x00, 0x00, 0x00, 0x0d, 0x00, 0x00, 0x00,
  0x66, 0x6c, 0x61, 0x74, 0x74, 0x65, 0x6e, 0x5f, 0x69, 0x6e, 0x70, 0x75,
  0x74, 0x00, 0x00, 0x00, 0x02, 0x00, 0x00, 0x00, 0x34, 0x00, 0x00, 0x00,
  0x04, 0x00, 0x00, 0x00, 0xdc, 0xff, 0xff, 0xff, 0x0c, 0x00, 0x00, 0x00,
  0x04, 0x00, 0x00, 0x00, 0x13, 0x00, 0x00, 0x00, 0x43, 0x4f, 0x4e, 0x56,
  0x45, 0x52, 0x53, 0x49, 0x4f, 0x4e, 0x5f, 0x4d, 0x45, 0x54, 0x41, 0x44,
  0x41, 0x54, 0x41, 0x00, 0x08, 0x00, 0x0c, 0x00, 0x08, 0x00, 0x04, 0x00,
  0x08, 0x00, 0x00, 0x00, 0x0b, 0x00, 0x00, 0x00, 0x04, 0x00, 0x00, 0x00,
  0x13, 0x00, 0x00, 0x00, 0x6d, 0x69, 0x6e, 0x5f, 0x72, 0x75, 0x6e, 0x74,
  0x69, 0x6d, 0x65, 0x5f, 0x76, 0x65, 0x72, 0x73, 0x69, 0x6f, 0x6e, 0x00,
  0x0d, 0x00, 0x00, 0x00, 0x98, 0x10, 0x00, 0x00, 0x90, 0x10, 0x00, 0x00,
  0x40, 0x10, 0x00, 0x00, 0xe8, 0x0f, 0x00, 0x00, 0xd4, 0x0f, 0x00, 0x00,
  0xbc, 0x0f, 0x00, 0x00, 0xac, 0x00, 0x00, 0x00, 0xa4, 0x00, 0x00, 0x00,
  0x9c, 0x00, 0x00, 0x00, 0x94, 0x00, 0x00, 0x00, 0x8c, 0x00, 0x00, 0x00,
  0x6c, 0x00, 0x00, 0x00, 0x04, 0x00, 0x00, 0x00, 0xf2, 0xef, 0xff, 0xff,
  0x04, 0x00, 0x00, 0x00, 0x58, 0x00, 0x00, 0x00, 0x0c, 0x00, 0x00, 0x00,
  0x08, 0x00, 0x0e, 0x00, 0x08, 0x00, 0x04, 0x00, 0x08, 0x00, 0x00, 0x00,
  0x10, 0x00, 0x00, 0x00, 0x28, 0x00, 0x00, 0x00, 0x00, 0x00, 0x06, 0x00,
  0x08, 0x00, 0x04, 0x00, 0x06, 0x00, 0x00, 0x00, 0x04, 0x00, 0x00, 0x00,
  0x01, 0x00, 0x00, 0x00, 0xea, 0x03, 0x00, 0x00, 0x00, 0x00, 0x0a, 0x00,
  0x10, 0x00, 0x0c, 0x00, 0x08, 0x00, 0x04, 0x00, 0x0a, 0x00, 0x00, 0x00,
  0x02, 0x00, 0x00, 0x00, 0x02, 0x00, 0x00, 0x00, 0x04, 0x00, 0x00, 0x00,
  0x06, 0x00, 0x00, 0x00, 0x32, 0x2e, 0x31, 0x32, 0x2e, 0x30, 0x00, 0x00,
  0x56, 0xf0, 0xff, 0xff, 0x04, 0x00, 0x00, 0x00, 0x10, 0x00, 0x00, 0x00,
  0x32, 0x2e, 0x33, 0x2e, 0x30, 0x00, 0x00, 0x00, 0x00, 0x00, 0x00, 0x00,
  0x00, 0x00, 0x00, 0x00, 0xd8, 0xea, 0xff, 0xff, 0xdc, 0xea, 0xff, 0xff,
  0xe0, 0xea, 0xff, 0xff, 0xe4, 0xea, 0xff, 0xff, 0x82, 0xf0, 0xff, 0xff,
  0x04, 0x00, 0x00, 0x00, 0x00, 0x0f, 0x00, 0x00, 0x49, 0x28, 0xab, 0x50,
  0x1f, 0x08, 0x16, 0x1e, 0x33, 0x94, 0x25, 0xe8, 0x41, 0x61, 0xd8, 0xe9,
  0x52, 0xc5, 0x1a, 0x4e, 0x05, 0x36, 0x27, 0xaf, 0xc5, 0x68, 0x0c, 0xab,
  0xf1, 0x01, 0x20, 0x35, 0x53, 0x40, 0xe5, 0xdd, 0xd6, 0xec, 0xf6, 0x24,
  0x44, 0xca, 0xed, 0x2d, 0xd5, 0xe1, 0xa6, 0xb0, 0xc1, 0x18, 0xe1, 0x15,
  0xf0, 0x2b, 0x30, 0x28, 0xe3, 0xc7, 0x57, 0xcd, 0xce, 0xc1, 0xe2, 0x10,
  0x51, 0xfe, 0x11, 0xa8, 0x02, 0xbc, 0xfd, 0x59, 0xa7, 0x4c, 0xf1, 0x58,
  0x15, 0xed, 0xcf, 0xe9, 0x3b, 0xaa, 0xcc, 0xc2, 0xb9, 0xe9, 0x2f, 0x26,
  0xcc, 0x24, 0x07, 0x5c, 0x44, 0x23, 0xae, 0x1a, 0x00, 0x04, 0xbd, 0xe7,
  0x04, 0xfc, 0xb3, 0x5b, 0xb0, 0x9a, 0x28, 0xb4, 0x3d, 0x33, 0xe4, 0xc8,
  0x9e, 0x49, 0xac, 0x67, 0xae, 0xd2, 0x4a, 0x28, 0xe4, 0x32, 0xd5, 0x3d,
  0xef, 0xdd, 0xff, 0xaf, 0xb7, 0xf2, 0xe4, 0xbe, 0x2e, 0xd2, 0x2f, 0xad,
  0xbd, 0x1d, 0x2a, 0xac, 0x04, 0xff, 0xd3, 0x54, 0x31, 0x24, 0xd7, 0x41,
  0xd0, 0x54, 0xd2, 0xec, 0xad, 0xab, 0xe6, 0xe4, 0x36, 0x58, 0x66, 0x15,
  0xec, 0x40, 0x4b, 0xec, 0x37, 0x3a, 0xde, 0x3d, 0x38, 0x46, 0xd3, 0x09,
  0xe3, 0x4f, 0xab, 0x72, 0xd5, 0x0e, 0xe9, 0x0a, 0x13, 0xd8, 0xb1, 0xfc,
  0x0b, 0x3b, 0x53, 0xe4, 0x27, 0xed, 0x24, 0xdd, 0x5b, 0xd0, 0x13, 0xcf,
  0x49, 0x01, 0x63, 0xf2, 0x19, 0x94, 0x6b, 0xc0, 0xf2, 0x48, 0x37, 0x9d,
  0xb1, 0xfb, 0x66, 0xbe, 0xfe, 0xdd, 0xbf, 0xfe, 0x43, 0x35, 0xcf, 0x29,
  0xd2, 0xe5, 0xf8, 0x45, 0x27, 0xa6, 0x4f, 0x44, 0xbf, 0xa5, 0xbb, 0xd0,
  0x6e, 0x20, 0x58, 0x2e, 0x3b, 0xc0, 0x5c, 0xd6, 0x41, 0x14, 0x24, 0x3c,
  0xbd, 0x2d, 0xdf, 0x3b, 0xfd, 0xd7, 0x20, 0x0d, 0xbe, 0x42, 0xca, 0xb6,
  0x4b, 0xbf, 0xbc, 0xc2, 0x46, 0xe9, 0xc6, 0xbc, 0xcb, 0x5e, 0x05, 0x26,
  0x0f, 0xcd, 0x1d, 0x50, 0xae, 0xf0, 0x53, 0x46, 0xb2, 0xb0, 0xdf, 0xc3,
  0xa3, 0x44, 0x36, 0xde, 0xf6, 0xc5, 0xd1, 0x4b, 0xa3, 0x2e, 0x0e, 0xd8,
  0xf9, 0x3d, 0x57, 0xda, 0x19, 0xfd, 0xd4, 0x16, 0xec, 0x4b, 0xe6, 0xb5,
  0xa0, 0xec, 0xd7, 0x0d, 0x0f, 0xd9, 0xff, 0xb3, 0x46, 0xfc, 0x4f, 0x1f,
  0x38, 0xf7, 0x4b, 0xb6, 0xd4, 0x52, 0x98, 0xea, 0x34, 0x65, 0x26, 0xff,
  0x26, 0x99, 0xe6, 0xdf, 0x25, 0x24, 0xbb, 0xf6, 0xe8, 0xdb, 0xe3, 0xa6,
  0xdf, 0x21, 0xfa, 0xb4, 0xe3, 0xbc, 0x5b, 0xf0, 0xfb, 0xce, 0xba, 0x23,
  0x18, 0x41, 0x54, 0x4f, 0xd9, 0x10, 0x47, 0xd4, 0x50, 0x42, 0x2e, 0xc6,
  0xd5, 0xd4, 0x0a, 0x02, 0xde, 0x21, 0xda, 0x51, 0x32, 0x00, 0x2a, 0xd7,
  0xc3, 0xc5, 0xf9, 0x37, 0xfe, 0xfc, 0xc8, 0xcc, 0x44, 0xad, 0x48, 0x28,
  0x2e, 0xbe, 0x32, 0xe7, 0x46, 0xf4, 0xcf, 0x48, 0xdd, 0x24, 0xd4, 0x14,
  0x18, 0x4b, 0x22, 0xcf, 0x37, 0x08, 0xec, 0x45, 0x24, 0xaf, 0xb0, 0x0a,
  0xc9, 0x1b, 0xff, 0x16, 0x5f, 0xb9, 0x41, 0x01, 0xbc, 0x1b, 0xaf, 0xe5,
  0xc2, 0x4d, 0xb9, 0xe1, 0x35, 0x26, 0x1f, 0xeb, 0x1f, 0xca, 0xd9, 0xd7,
  0x0e, 0x2d, 0xdb, 0xaa, 0xe6, 0x4d, 0xad, 0xbf, 0x3f, 0x1a, 0xf4, 0x54,
  0x25, 0x3a, 0xe7, 0x54, 0x0d, 0x5a, 0x2f, 0xa7, 0xac, 0x05, 0xc2, 0x2a,
  0x11, 0xc3, 0x38, 0xbb, 0x08, 0xd2, 0x09, 0xce, 0x2d, 0xf5, 0x1b, 0xf3,
  0x1e, 0x0d, 0xdb, 0x10, 0xf5, 0x05, 0x3e, 0xe4, 0x70, 0x19, 0xd7, 0x2d,
  0x49, 0xae, 0x07, 0x0a, 0x10, 0xab, 0xd5, 0x37, 0xdb, 0xe0, 0x3c, 0x41,
  0x92, 0x9b, 0x3b, 0x71, 0x43, 0x3a, 0xb0, 0xc2, 0x3a, 0x36, 0x31, 0x4c,
  0x3b, 0xc0, 0x3e, 0x5f, 0xc5, 0xf9, 0xd6, 0xb9, 0x14, 0x5e, 0x55, 0x04,
  0xfb, 0xc5, 0x98, 0xe6, 0xe6, 0x11, 0x27, 0xe4, 0x06, 0x0d, 0xba, 0xc3,
  0x39, 0x16, 0x23, 0x0e, 0x53, 0xc4, 0x9b, 0xeb, 0xd7, 0x60, 0x0f, 0x39,
  0xa1, 0x5b, 0x2f, 0x49, 0x45, 0x25, 0x2b, 0x43, 0x93, 0x11, 0xea, 0x27,
  0xe8, 0xee, 0xb9, 0xa2, 0x46, 0x5b, 0xa3, 0xf4, 0xb7, 0x2f, 0xb0, 0xc4,
  0xab, 0x12, 0xfe, 0x1a, 0x94, 0x50, 0xbf, 0xd2, 0x0c, 0xaa, 0x19, 0xb0,
  0x02, 0x43, 0x9f, 0x3c, 0xef, 0x4c, 0x12, 0xf9, 0xaf, 0xff, 0xc2, 0x00,
  0x12, 0x5b, 0xe3, 0x50, 0xfd, 0x16, 0x00, 0x17, 0xdc, 0x41, 0xef, 0x22,
  0xaf, 0xc3, 0xe1, 0x58, 0x13, 0x2e, 0xa3, 0xbb, 0xb7, 0x3a, 0x36, 0xbf,
  0x59, 0xf5, 0xed, 0x2a, 0xda, 0x4f, 0xc0, 0xee, 0x1c, 0x2e, 0x29, 0xfc,
  0x4f, 0x05, 0x12, 0x03, 0x00, 0xa9, 0x12, 0x4b, 0xc1, 0x29, 0x48, 0xf7,
  0xed, 0x34, 0x14, 0x57, 0x2d, 0x31, 0x34, 0xad, 0x15, 0xbc, 0x27, 0x9f,
  0xb4, 0x04, 0xd7, 0x38, 0x53, 0xd9, 0x34, 0x51, 0x4b, 0x28, 0x13, 0x00,
  0xc2, 0x25, 0xed, 0x50, 0xb4, 0xe3, 0x0d, 0xcf, 0x02, 0x38, 0xe0, 0xdd,
  0x1c, 0xf3, 0xb7, 0xc2, 0xe3, 0x31, 0xd4, 0xfb, 0x2e, 0xdf, 0x19, 0x41,
  0x2d, 0x37, 0xe9, 0xba, 0xe3, 0xdc, 0x2b, 0xac, 0x11, 0x14, 0x0a, 0xb1,
  0x31, 0x3c, 0xe6, 0x18, 0xbe, 0x13, 0xef, 0x04, 0x59, 0xd1, 0xf4, 0x2f,
  0x63, 0xd0, 0x6d, 0xc5, 0x30, 0x38, 0xd2, 0x08, 0xda, 0xde, 0xe3, 0xec,
  0x24, 0xc1, 0xfb, 0x45, 0x0b, 0xa6, 0x35, 0x60, 0x14, 0x0e, 0x33, 0x0e,
  0xb5, 0x24, 0x09, 0xab, 0x43, 0xe6, 0xea, 0xc3, 0xbb, 0x15, 0xb5, 0x34,
  0xc2, 0x0c, 0x45, 0xa3, 0xc0, 0x53, 0x62, 0x46, 0xec, 0xa3, 0x2b, 0x16,
  0xd9, 0xa9, 0x56, 0x0d, 0xfe, 0x26, 0xe6, 0x0d, 0x35, 0x04, 0x00, 0xf9,
  0x1b, 0x5b, 0xf0, 0x0b, 0x0e, 0x22, 0x52, 0x50, 0x40, 0xd1, 0x64, 0xbb,
  0x0a, 0xc2, 0x5a, 0x61, 0x44, 0xb9, 0xc4, 0x1a, 0x3a, 0x4d, 0x53, 0xf5,
  0xd8, 0xaa, 0xad, 0xa3, 0x48, 0x1b, 0x61, 0xe5, 0x41, 0xb0, 0xfe, 0xd6,
  0xe2, 0x5d, 0xd7, 0xbe, 0xcf, 0x3d, 0x42, 0x51, 0xdd, 0x9c, 0xe5, 0x0d,
  0xb5, 0xbf, 0xff, 0x3f, 0x5a, 0xe0, 0xee, 0xfd, 0xba, 0xea, 0xa7, 0xe1,
  0xba, 0x55, 0xe0, 0xa7, 0x1a, 0x50, 0x01, 0x4c, 0x39, 0x28, 0xb4, 0x2f,
  0xc7, 0x11, 0xd4, 0x01, 0x2d, 0xf2, 0xc8, 0x3f, 0x51, 0xca, 0x10, 0x49,
  0x13, 0x43, 0xc7, 0xc6, 0xfb, 0xfa, 0x40, 0x4f, 0xff, 0x2d, 0x98, 0x38,
  0xf3, 0x39, 0x01, 0xf2, 0xf9, 0x65, 0xa8, 0xfd, 0xe4, 0xc0, 0x58, 0x0a,
  0xba, 0x3c, 0x59, 0x1e, 0x5d, 0x1a, 0xd7, 0x11, 0xc1, 0x0d, 0x35, 0xfa,
  0x1d, 0xb4, 0xab, 0x3a, 0xb3, 0x4d, 0xdd, 0x5c, 0x59, 0x5c, 0x56, 0x57,
  0x4f, 0xed, 0x54, 0xa7, 0x23, 0xdd, 0x1c, 0xbc, 0xa3, 0x47, 0x35, 0x30,
  0xbe, 0x33, 0xb2, 0x53, 0x26, 0x05, 0xf9, 0xed, 0xd5, 0xe0, 0x2c, 0xc0,
  0x41, 0x21, 0xe5, 0xde, 0x2a, 0xb1, 0x4c, 0x43, 0x55, 0x13, 0xf2, 0xe7,
  0x10, 0xf3, 0x26, 0x04, 0xda, 0xdd, 0x03, 0x3e, 0xcf, 0xcd, 0x16, 0xc3,
  0xd8, 0xb3, 0x0f, 0x2f, 0xb3, 0xe4, 0xb3, 0x01, 0xe8, 0xb2, 0x54, 0xc7,
  0x20, 0xb5, 0x49, 0x20, 0xf5, 0xe6, 0xb3, 0xbc, 0x31, 0x4a, 0xa4, 0x3d,
  0xfd, 0x21, 0xa5, 0x53, 0x0d, 0x3c, 0x16, 0xb9, 0xe6, 0xa8, 0x19, 0x0d,
  0xfd, 0x1a, 0x0c, 0xac, 0x09, 0x50, 0x30, 0x4d, 0xc3, 0x33, 0x61, 0xeb,
  0x25, 0xe0, 0xfb, 0xd6, 0xd8, 0x26, 0x51, 0xa0, 0x01, 0xf3, 0x40, 0x4a,
  0xf6, 0x07, 0x59, 0xab, 0x20, 0x49, 0x16, 0xb5, 0x9d, 0xb5, 0x3d, 0xbe,
  0x03, 0x5f, 0x54, 0x01, 0x49, 0x1f, 0xe5, 0x4d, 0xbd, 0xb7, 0xf2, 0xfe,
  0xbe, 0xd3, 0xe2, 0x28, 0xbf, 0xad, 0x5e, 0x0d, 0xbc, 0xcf, 0xf4, 0x62,
  0x2b, 0xcd, 0xd3, 0x38, 0x56, 0x04, 0xb2, 0x47, 0xb1, 0xfe, 0x0b, 0x44,
  0x4d, 0x66, 0x18, 0xd4, 0xcb, 0xcf, 0xc1, 0x6b, 0xda, 0xec, 0x44, 0x22,
  0x00, 0x0d, 0x14, 0x35, 0x5c, 0xf3, 0x02, 0xcd, 0x00, 0x45, 0x07, 0x14,
  0x30, 0xcd, 0x0b, 0xc7, 0x4a, 0x22, 0x0a, 0x3d, 0xd0, 0xf9, 0x23, 0xf7,
  0x37, 0xdb, 0xa9, 0x48, 0x9b, 0x29, 0x41, 0xf5, 0xb0, 0x3f, 0xf8, 0x2e,
  0x3f, 0xad, 0x0a, 0xa6, 0x01, 0xfc, 0x56, 0xdf, 0xe5, 0xc7, 0x3f, 0xc9,
  0xe0, 0x39, 0xf1, 0x36, 0xb7, 0x62, 0x25, 0xe3, 0x37, 0x25, 0x44, 0x05,
  0xe5, 0x4c, 0xbe, 0x57, 0x59, 0xfc, 0xb6, 0xc8, 0x15, 0x36, 0x2b, 0xd0,
  0x4a, 0x34, 0xb8, 0x0b, 0xe5, 0x16, 0x12, 0xbf, 0xa8, 0xb9, 0xe7, 0xad,
  0xb6, 0x20, 0xf5, 0x30, 0x9d, 0xf3, 0x4e, 0x4f, 0xb1, 0xeb, 0x46, 0x32,
  0x11, 0x13, 0xf5, 0xd4, 0xc4, 0x4b, 0x0a, 0x6d, 0xe1, 0x0f, 0x34, 0x0f,
  0xb9, 0x4a, 0x2a, 0x59, 0x2c, 0xeb, 0x1c, 0xb3, 0x3b, 0xa6, 0x3c, 0xdf,
  0x56, 0x68, 0xe9, 0x42, 0xb6, 0x02, 0x3e, 0x67, 0xd0, 0x58, 0x3f, 0xc3,
  0x52, 0x1f, 0xa6, 0x18, 0xbd, 0xc7, 0x1d, 0x04, 0x1b, 0xab, 0xab, 0x1f,
  0x13, 0x49, 0xf2, 0xa3, 0xef, 0x16, 0xc5, 0xcb, 0xbf, 0xcc, 0x5a, 0xec,
  0x11, 0xb9, 0xfb, 0xf1, 0xe1, 0x20, 0xd4, 0xde, 0x60, 0xce, 0xef, 0xe4,
  0x58, 0xd9, 0xdf, 0x17, 0xba, 0x05, 0xa2, 0x06, 0x32, 0x02, 0xf3, 0xa3,
  0x04, 0xc6, 0xf7, 0x02, 0xa4, 0x50, 0xac, 0xd4, 0x2f, 0xae, 0x4b, 0x2b,
  0xf6, 0x48, 0x02, 0xdf, 0x5a, 0x4e, 0xce, 0xcd, 0x33, 0xbd, 0xe0, 0x4b,
  0xec, 0x34, 0x4e, 0x2d, 0xde, 0xfa, 0x4e, 0x0d, 0x14, 0x49, 0xb3, 0xc4,
  0x28, 0xdc, 0xd7, 0xfe, 0x48, 0x9e, 0xf5, 0xc3, 0xca, 0xf5, 0xef, 0xaa,
  0x5d, 0xa0, 0x26, 0xde, 0x1e, 0xfd, 0x5d, 0x28, 0x50, 0xb1, 0xb6, 0xb3,
  0x57, 0xfc, 0x34, 0xc6, 0x5a, 0x33, 0xa9, 0xf4, 0xcc, 0x18, 0xc8, 0x59,
  0xea, 0x4c, 0xfb, 0xb5, 0x22, 0x3c, 0xef, 0x24, 0xc1, 0xce, 0xcc, 0xf5,
  0xbc, 0xfa, 0xd0, 0x2e, 0xcc, 0x13, 0xec, 0xc0, 0xb3, 0xed, 0xfa, 0xf2,
  0xfc, 0xf8, 0xfb, 0x3c, 0xf6, 0x40, 0x34, 0xed, 0xb5, 0x54, 0x2b, 0x4c,
  0xd9, 0x0a, 0x32, 0xe9, 0x44, 0xa3, 0x02, 0x4d, 0x65, 0xd0, 0x1d, 0xf9,
  0x65, 0xbe, 0xd1, 0xc1, 0xfc, 0xcc, 0x63, 0x3f, 0xad, 0x4f, 0x25, 0x03,
  0xcb, 0x55, 0xba, 0x24, 0x0f, 0x3d, 0xf8, 0xee, 0x12, 0x37, 0xf8, 0x37,
  0x0c, 0xb5, 0x33, 0x5d, 0xd9, 0x20, 0x05, 0x21, 0xf6, 0xab, 0xc8, 0xfe,
  0x4e, 0x42, 0xd0, 0x1a, 0x47, 0xe5, 0xe5, 0x0f, 0xc9, 0xb7, 0xdd, 0xc1,
  0x5b, 0x43, 0xad, 0x57, 0xb7, 0x30, 0xea, 0x25, 0xbb, 0x20, 0xf2, 0xe3,
  0xaa, 0xa2, 0xc3, 0x45, 0xe0, 0x5e, 0x4f, 0xae, 0xac, 0xd7, 0x22, 0x5f,
  0x6c, 0xd2, 0x38, 0xb8, 0x22, 0xa8, 0xe2, 0x5f, 0xca, 0x3e, 0xb2, 0xe6,
  0x15, 0xd2, 0x2e, 0x23, 0x47, 0x61, 0x26, 0x24, 0xc1, 0xe7, 0x36, 0x2e,
  0xb6, 0x1a, 0xa3, 0x0a, 0xc3, 0xe5, 0x1a, 0x0b, 0x0f, 0x0f, 0x25, 0xa2,
  0x36, 0xc3, 0x35, 0x41, 0x2b, 0x2c, 0x15, 0x57, 0xb9, 0x10, 0xc3, 0xcd,
  0x05, 0x4c, 0x00, 0xe9, 0xcd, 0x38, 0xa8, 0xeb, 0xde, 0x2e, 0x40, 0x44,
  0xf2, 0x4f, 0xad, 0xf9, 0xd0, 0xe1, 0xd4, 0xe1, 0xc0, 0xb8, 0xec, 0x37,
  0x5b, 0xc8, 0xbd, 0xc9, 0xcd, 0xc1, 0x4f, 0xb3, 0xa6, 0x33, 0x28, 0xf0,
  0xcb, 0x42, 0x50, 0xcf, 0xf5, 0xce, 0xb1, 0xcd, 0x4e, 0x2a, 0xed, 0x1e,
  0x5b, 0x4d, 0xd1, 0x99, 0xf0, 0xfa, 0xb6, 0xc8, 0x3d, 0xa5, 0xb4, 0x05,
  0xcb, 0x2a, 0x45, 0x40, 0x18, 0xcf, 0xd1, 0x44, 0xc9, 0xbf, 0xb0, 0xd0,
  0xd1, 0xe0, 0x48, 0xdd, 0xbd, 0xad, 0xf5, 0xb2, 0x67, 0xc1, 0xad, 0xe5,
  0xfd, 0xf9, 0x52, 0x32, 0xcd, 0x45, 0xeb, 0x15, 0x2f, 0xfc, 0x00, 0x2d,
  0xd1, 0x33, 0xbf, 0x23, 0x1a, 0xc6, 0xf0, 0x47, 0xb0, 0xc5, 0xb3, 0x3b,
  0x09, 0xd0, 0x4d, 0xba, 0xde, 0x5c, 0xbd, 0xc7, 0x4e, 0x35, 0xa1, 0x5d,
  0x2c, 0xc0, 0xa4, 0x25, 0xc5, 0x3f, 0xb7, 0xf6, 0x9b, 0xb2, 0xec, 0x45,
  0xa9, 0x1e, 0x2d, 0xb3, 0xa1, 0x23, 0x9c, 0x2c, 0xe8, 0x28, 0x9e, 0x40,
  0x07, 0x54, 0xed, 0x3f, 0xec, 0xa9, 0x46, 0xf4, 0x1e, 0x9d, 0xa7, 0x37,
  0x2d, 0x19, 0xc6, 0xf5, 0x43, 0xbd, 0x0a, 0xc9, 0x1d, 0xfa, 0x0f, 0x9f,
  0x29, 0x4a, 0x11, 0x9e, 0x2c, 0xa9, 0xe3, 0x09, 0x37, 0xb1, 0x47, 0x0f,
  0x3d, 0xf6, 0x27, 0x40, 0x20, 0xa2, 0x1b, 0x29, 0x1d, 0xd0, 0xa8, 0x94,
  0xaf, 0xaf, 0x54, 0xcc, 0xe3, 0x9b, 0xbf, 0x1f, 0x2d, 0xc9, 0xaa, 0x04,
  0xc4, 0x45, 0x29, 0xed, 0x5f, 0xaa, 0xb4, 0xec, 0xf0, 0x72, 0xe7, 0xee,
  0xd9, 0xdc, 0xad, 0x5e, 0x6a, 0x4f, 0x64, 0x06, 0xa7, 0x1c, 0xe5, 0x45,
  0xb6, 0xc2, 0x10, 0x1b, 0xf8, 0xde, 0x68, 0x51, 0x41, 0x3a, 0x1b, 0x2d,
  0xab, 0x27, 0x11, 0xcc, 0xae, 0xae, 0x1f, 0x2b, 0xd8, 0x5e, 0x0a, 0x6b,
  0x11, 0x2f, 0xae, 0xd6, 0x14, 0x60, 0xfd, 0x07, 0x0e, 0xc5, 0x23, 0x54,
  0xc0, 0x29, 0xff, 0xd2, 0x9c, 0xe9, 0x1b, 0xc6, 0xbd, 0xee, 0x0e, 0x0d,
  0xa3, 0x34, 0xad, 0xbd, 0xc8, 0x32, 0x43, 0xda, 0x12, 0x2b, 0x3f, 0xae,
  0xe2, 0xeb, 0xa0, 0x3f, 0xec, 0x40, 0x59, 0x71, 0xa1, 0x42, 0x05, 0x34,
  0xbc, 0x03, 0x1d, 0xd9, 0xff, 0x41, 0x0e, 0xce, 0x4d, 0x3c, 0xb9, 0x41,
  0xe2, 0x72, 0x9a, 0x50, 0xd2, 0x33, 0x59, 0x09, 0x99, 0xa5, 0x27, 0xcc,
  0xd0, 0xb5, 0xd2, 0xc8, 0x57, 0xda, 0x24, 0xb9, 0xce, 0xcd, 0x06, 0x25,
  0x5b, 0xb3, 0xb4, 0x0b, 0xc4, 0x0f, 0x6d, 0x1b, 0x0c, 0x11, 0xf6, 0x1c,
  0x31, 0x10, 0xcb, 0xc4, 0xea, 0x0b, 0xc1, 0x20, 0x04, 0xf5, 0x24, 0xf7,
  0xc9, 0x2f, 0x2b, 0xfc, 0x22, 0x52, 0x26, 0x32, 0x0f, 0x55, 0x21, 0x11,
  0xdd, 0xc5, 0xc2, 0x5c, 0xd6, 0x1b, 0x0d, 0x46, 0x45, 0x17, 0x34, 0x13,
  0xf9, 0x58, 0xb1, 0x39, 0xa9, 0xe4, 0x4a, 0x0a, 0x1e, 0x63, 0x43, 0xa7,
  0x41, 0xa8, 0x4f, 0xe7, 0xa5, 0xe1, 0x6e, 0x53, 0x00, 0xb8, 0x33, 0xcd,
  0xd9, 0x53, 0xaa, 0x49, 0x3a, 0x38, 0x07, 0xcf, 0xe4, 0xd9, 0xaa, 0x1d,
  0x17, 0x04, 0x38, 0x49, 0x43, 0xbf, 0xf8, 0xf4, 0xd1, 0xc0, 0x14, 0x1e,
  0xd5, 0xe8, 0xfc, 0x48, 0x12, 0xfb, 0x24, 0xba, 0x0c, 0x04, 0xd2, 0x30,
  0xe2, 0x0d, 0x18, 0x38, 0x41, 0xdc, 0xe2, 0x06, 0xa6, 0xe0, 0xe9, 0x26,
  0x07, 0x04, 0xe6, 0x5d, 0x0a, 0x37, 0xba, 0xc6, 0xd3, 0xdb, 0x57, 0xd2,
  0x2b, 0xad, 0xd5, 0xc4, 0x2f, 0xba, 0x28, 0x1c, 0xd2, 0xea, 0xbb, 0xf2,
  0xa4, 0xac, 0x0f, 0xf8, 0x32, 0x42, 0x1e, 0x4f, 0x51, 0x30, 0xbb, 0x2c,
  0x04, 0xe9, 0x63, 0x5c, 0xdd, 0xa9, 0x54, 0xab, 0x5e, 0xed, 0x29, 0xde,
  0x2a, 0x22, 0xe3, 0xc2, 0x4e, 0xc7, 0x57, 0xc1, 0xe4, 0xe2, 0x20, 0xde,
  0x5f, 0x01, 0x0e, 0xa7, 0xbf, 0xd7, 0xb8, 0x22, 0xfb, 0x25, 0x22, 0x43,
  0x1d, 0x08, 0x4a, 0x42, 0x0b, 0xe9, 0xd3, 0x9b, 0x53, 0x68, 0xe2, 0x2c,
  0x5e, 0x14, 0xd6, 0xbe, 0x2b, 0x08, 0x48, 0xb4, 0xd6, 0x1e, 0xdc, 0xc4,
  0x03, 0x18, 0xf5, 0x03, 0x4d, 0x40, 0xae, 0x39, 0x05, 0xee, 0x32, 0x33,
  0x4f, 0xb0, 0xc4, 0x24, 0x34, 0x2d, 0xf1, 0x49, 0x0e, 0xb8, 0xfe, 0x2d,
  0x11, 0x59, 0xb6, 0x28, 0x42, 0xb8, 0xbd, 0x04, 0x54, 0x30, 0xb2, 0x31,
  0x27, 0x16, 0x0c, 0x29, 0xee, 0xc8, 0x1d, 0x2b, 0xbd, 0xdf, 0xc0, 0x47,
  0x60, 0x38, 0x66, 0xb8, 0xbd, 0x26, 0x4e, 0x2b, 0x24, 0x44, 0x3a, 0x0d,
  0x2b, 0x5d, 0x45, 0xaa, 0x1f, 0xa4, 0xfe, 0xd5, 0x43, 0x12, 0xa5, 0x0b,
  0x2d, 0xe8, 0xdd, 0xea, 0xc6, 0xfa, 0xfb, 0xfc, 0xfb, 0xf3, 0xb0, 0xb4,
  0x08, 0x04, 0xe9, 0x36, 0x29, 0xc1, 0x03, 0xb1, 0xbc, 0x9f, 0xb8, 0xf8,
  0x17, 0xbd, 0x4d, 0xf1, 0xbd, 0xc7, 0xa5, 0x2d, 0xc7, 0xf6, 0x26, 0x53,
  0xf1, 0xd3, 0xd0, 0xb7, 0xb4, 0xd1, 0x47, 0x3f, 0x25, 0x40, 0x29, 0x1f,
  0xdd, 0x13, 0x06, 0xf4, 0xd6, 0x3f, 0xdc, 0x11, 0x60, 0x0d, 0x4f, 0x17,
  0xd7, 0x10, 0xff, 0x37, 0x73, 0xcd, 0xc9, 0xa7, 0xbe, 0xf4, 0xc1, 0xbe,
  0x19, 0xa0, 0x45, 0xaf, 0xd2, 0x1a, 0xf1, 0x32, 0x34, 0x59, 0xaa, 0x65,
  0xb3, 0xc8, 0x12, 0x62, 0xf2, 0x26, 0x34, 0x32, 0xaa, 0x0f, 0x45, 0x3b,
  0xca, 0xbe, 0xc7, 0x5b, 0x3a, 0xb7, 0x9e, 0xe6, 0xc0, 0xaa, 0x3b, 0xfa,
  0xf9, 0x06, 0x9f, 0x68, 0xe1, 0xc3, 0x0d, 0xe6, 0x10, 0x26, 0x0a, 0x15,
  0x9a, 0xf1, 0xef, 0x32, 0x10, 0xbe, 0x43, 0xcb, 0x1f, 0x39, 0x3d, 0xd8,
  0xbf, 0x38, 0xc8, 0xbb, 0x25, 0xae, 0xfc, 0x51, 0xf5, 0xe2, 0x3b, 0x20,
  0xea, 0x57, 0xab, 0xce, 0x35, 0xd8, 0x28, 0x5a, 0x5c, 0xe6, 0xd7, 0x57,
  0x3c, 0xeb, 0x21, 0xfb, 0xc8, 0x45, 0x32, 0x0b, 0xb4, 0x4c, 0xee, 0x27,
  0x20, 0x18, 0xe4, 0xd5, 0xf0, 0xb5, 0x04, 0xb2, 0x5a, 0x57, 0x2c, 0xf5,
  0xa7, 0xd0, 0x53, 0x35, 0xb9, 0xea, 0x19, 0xfb, 0x43, 0xc6, 0xdc, 0x10,
  0xf2, 0x0f, 0x3f, 0xc6, 0xb7, 0x3d, 0xbf, 0x9d, 0xab, 0xe8, 0x36, 0xcc,
  0x40, 0x27, 0x13, 0x26, 0xdb, 0xab, 0x5a, 0x0b, 0x56, 0x64, 0x3d, 0x29,
  0x31, 0xd6, 0xfd, 0xb8, 0xe6, 0xac, 0x24, 0xf1, 0x62, 0x0e, 0x0b, 0xcb,
  0x0a, 0xb0, 0x12, 0xde, 0x62, 0xe5, 0x3f, 0x3b, 0x50, 0x34, 0x10, 0x9f,
  0xd5, 0xd6, 0xe9, 0xcf, 0x32, 0xc2, 0xbc, 0xd9, 0x0c, 0xec, 0x2f, 0x1c,
  0x0f, 0xce, 0x29, 0xc8, 0x19, 0x1a, 0xeb, 0xe4, 0xed, 0x24, 0xaa, 0x98,
  0x46, 0xa7, 0x54, 0xb4, 0xed, 0xfb, 0x44, 0x38, 0xd6, 0xab, 0x09, 0x3f,
  0xe8, 0x1c, 0x57, 0x4f, 0x31, 0x20, 0x26, 0x26, 0xd1, 0xdc, 0xa8, 0xfc,
  0xc2, 0xea, 0x4e, 0x32, 0x56, 0x03, 0x50, 0x15, 0x33, 0xd2, 0xfe, 0x51,
  0xf9, 0x30, 0x3d, 0xe9, 0x03, 0xb4, 0x3b, 0x58, 0xb0, 0xc0, 0x05, 0xac,
  0xa9, 0xfd, 0x1c, 0x56, 0xcc, 0xf9, 0x33, 0xcd, 0x16, 0x53, 0x3f, 0x2a,
  0x39, 0xa5, 0x59, 0xea, 0x4f, 0x29, 0x50, 0x22, 0xe9, 0x44, 0xfb, 0xd5,
  0xfa, 0x04, 0xb1, 0x56, 0x0c, 0x1b, 0xb6, 0xb3, 0xce, 0xf8, 0x56, 0x42,
  0xf7, 0xf1, 0xd4, 0xab, 0xd4, 0xc3, 0xdf, 0x36, 0xc7, 0x2b, 0x5d, 0xae,
  0xea, 0xd6, 0xb4, 0x09, 0xd5, 0x1c, 0x40, 0x0b, 0x12, 0x61, 0x28, 0x0c,
  0x56, 0xf9, 0x20, 0x0b, 0xa9, 0x3f, 0xfe, 0x9f, 0xac, 0x2e, 0xd3, 0x2d,
  0x5c, 0xf7, 0x2c, 0x20, 0xd7, 0x1d, 0x66, 0xe1, 0x31, 0x42, 0x51, 0x9a,
  0x60, 0x38, 0xa5, 0xf2, 0xb3, 0xeb, 0xda, 0xbf, 0x4b, 0x51, 0x03, 0xc6,
  0xfc, 0xd0, 0xe4, 0x1e, 0x3f, 0x14, 0xd7, 0x20, 0x51, 0x55, 0xbe, 0xa5,
  0x0c, 0x02, 0xe8, 0x60, 0x4b, 0xef, 0xf1, 0x4b, 0x03, 0x1b, 0xe2, 0x0d,
  0x66, 0x39, 0xe4, 0x5c, 0xcf, 0xdb, 0xee, 0x0b, 0xdb, 0x60, 0x3c, 0x5b,
  0x00, 0x41, 0xc4, 0x41, 0x56, 0x44, 0x28, 0xd5, 0x30, 0x41, 0x2c, 0xe5,
  0x55, 0x1c, 0x29, 0x53, 0xec, 0x0c, 0xbe, 0xe3, 0xc8, 0x57, 0xab, 0xae,
  0xbe, 0x54, 0x03, 0xc6, 0xf9, 0xfa, 0xe4, 0x42, 0x28, 0xab, 0x5b, 0x1a,
  0xb7, 0x4f, 0xb7, 0x06, 0xd9, 0xbc, 0xf2, 0x48, 0x55, 0xc3, 0x0c, 0xd5,
  0xe6, 0x21, 0xb9, 0xed, 0x5c, 0xce, 0x43, 0x4c, 0x00, 0xab, 0x44, 0xa5,
  0x43, 0x56, 0x5a, 0x0e, 0x59, 0x10, 0x1b, 0xbd, 0x2e, 0x0f, 0x1c, 0xf3,
  0xb6, 0x00, 0xd6, 0xed, 0x02, 0xd1, 0x3f, 0xe3, 0xcb, 0xda, 0x38, 0xd6,
  0x32, 0xea, 0x29, 0x12, 0x3f, 0xd9, 0xaf, 0x09, 0xd2, 0x4d, 0x56, 0x4e,
  0x19, 0x3e, 0x0b, 0xaf, 0xad, 0x2e, 0xda, 0xfa, 0x53, 0xc0, 0x04, 0xf0,
  0x1f, 0x4c, 0x3c, 0x35, 0x46, 0xcd, 0x46, 0xa6, 0xcf, 0xcd, 0x33, 0xef,
  0x00, 0x42, 0xb3, 0x3e, 0xb6, 0x1f, 0xc1, 0x09, 0x4f, 0xc5, 0x31, 0x23,
  0xbe, 0x3c, 0xd7, 0xed, 0xc2, 0xc0, 0xb0, 0x1e, 0xef, 0x18, 0xdc, 0x14,
  0xc1, 0xde, 0xc6, 0x9c, 0xd8, 0xe2, 0x48, 0xf4, 0xf8, 0x58, 0x22, 0xf6,
  0xa5, 0x0e, 0xc1, 0x31, 0x4f, 0x1a, 0xff, 0x13, 0x12, 0x02, 0xd5, 0x3c,
  0x0a, 0xe6, 0x0f, 0xa6, 0xc4, 0x45, 0xb9, 0xa1, 0x33, 0xb3, 0xd2, 0xff,
  0x35, 0x27, 0xd1, 0x17, 0x0f, 0xb8, 0x36, 0xf1, 0x51, 0x3f, 0x33, 0xc2,
  0x21, 0xa8, 0x25, 0x50, 0x5c, 0x3b, 0xc9, 0xb4, 0x21, 0xe1, 0x12, 0x3c,
  0x24, 0x30, 0xad, 0x6c, 0x3a, 0xb6, 0x66, 0x10, 0x3f, 0x0a, 0xca, 0xfd,
  0x5b, 0x63, 0x3a, 0xe5, 0xc3, 0x4c, 0xf2, 0x35, 0x28, 0x21, 0x5d, 0xd3,
  0xba, 0x44, 0xc3, 0x03, 0xc6, 0xf9, 0x38, 0xf6, 0x24, 0x22, 0x68, 0xa6,
  0xd9, 0x52, 0xaf, 0x2c, 0x5d, 0x0a, 0xf4, 0x38, 0x4f, 0xf2, 0x48, 0x07,
  0x60, 0xcf, 0x46, 0xe0, 0x60, 0x12, 0x58, 0xa6, 0xe2, 0xc8, 0xf7, 0xff,
  0x01, 0x13, 0xa6, 0xa4, 0x08, 0x44, 0x50, 0xa2, 0xb8, 0x10, 0xbf, 0x4a,
  0x22, 0x26, 0x31, 0xf4, 0x3c, 0xee, 0x2e, 0xb6, 0xc7, 0xd1, 0xb8, 0x33,
  0xa8, 0x11, 0xfa, 0xff, 0x15, 0x66, 0x41, 0x09, 0x3a, 0xa8, 0xdf, 0x2d,
  0x37, 0x48, 0xab, 0xc2, 0x0d, 0x45, 0xf9, 0xed, 0x04, 0xe7, 0x18, 0xaa,
  0x4f, 0xae, 0x22, 0xd3, 0x5f, 0x35, 0x29, 0xd4, 0x1d, 0xc9, 0x2a, 0xf2,
  0x6c, 0x1a, 0xef, 0x36, 0x58, 0xab, 0x37, 0x2c, 0x40, 0x34, 0xf8, 0x2d,
  0x65, 0x69, 0x32, 0x2d, 0x4f, 0x11, 0x22, 0xf9, 0x12, 0xd8, 0x07, 0xb6,
  0x0a, 0xcb, 0x16, 0x3e, 0x5b, 0xc2, 0x03, 0x35, 0xe8, 0xf8, 0x05, 0xb0,
  0x9f, 0xe6, 0x18, 0xbf, 0x2b, 0x58, 0xf9, 0xb8, 0x4c, 0x47, 0xb0, 0x55,
  0x08, 0xea, 0x1c, 0x45, 0xf3, 0x19, 0xaf, 0x6a, 0xcc, 0x50, 0x54, 0x4e,
  0x2e, 0x0e, 0x5b, 0x4b, 0x26, 0xb2, 0x1c, 0xc9, 0x0b, 0xa3, 0xc6, 0xd5,
  0xeb, 0xdb, 0x10, 0x29, 0xb5, 0x1a, 0x36, 0x4b, 0x61, 0x40, 0xa5, 0x4d,
  0x5c, 0x4f, 0x38, 0x55, 0x33, 0x09, 0x28, 0xd1, 0xff, 0xe5, 0xc8, 0x4d,
  0x47, 0xcc, 0x50, 0x0f, 0x09, 0xd9, 0xae, 0x3a, 0xf1, 0xf0, 0x11, 0x2c,
  0x2e, 0x4c, 0x17, 0xf3, 0xad, 0xb0, 0xeb, 0x0d, 0x71, 0x08, 0xef, 0xc9,
  0xd2, 0x3c, 0xba, 0xbb, 0xd9, 0x63, 0xf3, 0x2a, 0x67, 0xdd, 0x3e, 0x2c,
  0x09, 0xe4, 0xc0, 0xae, 0xf5, 0x03, 0xfe, 0xa7, 0xe8, 0x00, 0xc0, 0xbf,
  0x14, 0x9d, 0xc3, 0x1f, 0x17, 0x06, 0x3c, 0xa5, 0xe9, 0xee, 0x31, 0xa1,
  0xf7, 0xd2, 0xb2, 0xe3, 0x39, 0x2f, 0xb2, 0x27, 0xfe, 0xad, 0xf0, 0x37,
  0x0b, 0x9a, 0xd5, 0x11, 0x57, 0xfa, 0xd5, 0x0a, 0x15, 0x9c, 0x57, 0xa3,
  0x1e, 0x0c, 0x02, 0xe3, 0xb0, 0xee, 0x11, 0x2a, 0xe5, 0x05, 0x9f, 0xe6,
  0xb9, 0x50, 0xfc, 0x44, 0x2c, 0xcd, 0xa8, 0xb9, 0xcd, 0xc6, 0xf2, 0xf8,
  0xce, 0x05, 0x03, 0xee, 0x55, 0xaa, 0x4c, 0x10, 0xe6, 0xf6, 0xa4, 0x9e,
  0x22, 0x45, 0x24, 0x43, 0x37, 0x5b, 0xe7, 0x66, 0x28, 0xd6, 0x4e, 0x42,
  0x49, 0x36, 0x09, 0x32, 0xc3, 0xde, 0x16, 0xcf, 0x32, 0xdc, 0xbb, 0x56,
  0xb7, 0xe3, 0xe3, 0x5a, 0x1e, 0x42, 0x3e, 0x46, 0x37, 0x65, 0xe1, 0xf9,
  0x1e, 0xc8, 0xb7, 0xfa, 0x36, 0xae, 0x02, 0x3d, 0xf8, 0x19, 0x0c, 0xa6,
  0x18, 0xb3, 0x45, 0x40, 0x1f, 0xe8, 0xd7, 0xcb, 0xef, 0xe7, 0x20, 0xf8,
  0xd8, 0x2d, 0x04, 0x49, 0xfa, 0xe6, 0x36, 0xce, 0x54, 0xe2, 0x47, 0x1d,
  0x30, 0x14, 0x49, 0x38, 0xaf, 0xe6, 0x1d, 0x2f, 0xd4, 0xda, 0x28, 0x00,
  0x1c, 0xeb, 0xd4, 0x24, 0x19, 0xf4, 0xd9, 0xee, 0x13, 0x9a, 0xcb, 0x9d,
  0x09, 0xd3, 0xb4, 0x50, 0xae, 0x47, 0xda, 0x2b, 0xc0, 0xcd, 0xd0, 0xea,
  0x3c, 0x58, 0xbe, 0xd4, 0x28, 0x04, 0xd9, 0xe1, 0x1b, 0xf7, 0x67, 0xe5,
  0x07, 0xb5, 0x0d, 0xd4, 0xf9, 0xf3, 0xcb, 0x1f, 0xc0, 0x32, 0xa1, 0x10,
  0xdd, 0xdb, 0x2a, 0xa5, 0x38, 0xec, 0x1f, 0x20, 0xae, 0x1e, 0xfe, 0x34,
  0x02, 0xdc, 0x50, 0xed, 0x1f, 0xdc, 0x0a, 0xfd, 0xf2, 0x13, 0xdf, 0x31,
  0xcf, 0x30, 0xc7, 0xf3, 0xec, 0x09, 0x24, 0xf9, 0xdb, 0xae, 0xd2, 0x59,
  0xc5, 0xfd, 0x2f, 0xa7, 0x1d, 0x28, 0xbd, 0xa6, 0xe2, 0xd2, 0x63, 0x49,
  0x32, 0x17, 0x38, 0xc7, 0xa3, 0xde, 0x1d, 0x04, 0xb0, 0xb4, 0x4b, 0xcf,
  0x23, 0xef, 0xc0, 0x22, 0x5d, 0x5c, 0x0d, 0xe6, 0x08, 0x48, 0x01, 0xc6,
  0x18, 0x5f, 0x1c, 0x9d, 0xbe, 0xf1, 0x22, 0x01, 0x0c, 0xcc, 0x08, 0x35,
  0xac, 0xea, 0x32, 0xa4, 0x39, 0xf7, 0x1b, 0xae, 0x32, 0x4a, 0x07, 0x1b,
  0x31, 0xb7, 0x0a, 0xe4, 0xfc, 0x26, 0xe0, 0xfb, 0xbd, 0x9c, 0xe3, 0x50,
  0x4b, 0xfc, 0xa1, 0x46, 0xa3, 0x4a, 0xeb, 0xb6, 0xd3, 0x9a, 0xc2, 0xaa,
  0xfe, 0xd7, 0xce, 0x57, 0xe9, 0x1d, 0xd7, 0x05, 0xe4, 0xb1, 0x5b, 0x64,
  0xfa, 0x3b, 0xd8, 0x3b, 0x07, 0x6c, 0x01, 0xe5, 0xfb, 0xa9, 0x10, 0x71,
  0xd8, 0x02, 0x56, 0x40, 0xce, 0xf0, 0xde, 0xb7, 0x44, 0xf0, 0x00, 0x56,
  0xea, 0xc7, 0x57, 0x4a, 0xd6, 0x4e, 0xc3, 0x38, 0xe1, 0x55, 0xbd, 0xc6,
  0x90, 0x31, 0xfa, 0xc3, 0x96, 0x37, 0x29, 0x1e, 0x54, 0xb5, 0x30, 0xe9,
  0x40, 0xb2, 0x4f, 0xdb, 0x9f, 0xcc, 0x0c, 0x55, 0xd1, 0xf8, 0x12, 0x48,
  0xb0, 0xf9, 0xe3, 0xde, 0xa5, 0x0e, 0x0c, 0xff, 0x11, 0xba, 0xd6, 0x5c,
  0xb6, 0x2d, 0xd0, 0xc3, 0xa1, 0xf6, 0x32, 0xdd, 0xe1, 0x9f, 0xe4, 0x4e,
  0x48, 0xd5, 0xb6, 0x49, 0x41, 0x17, 0xe4, 0x06, 0xef, 0xcf, 0xd8, 0x43,
  0x3f, 0x04, 0x42, 0xd1, 0xc6, 0xfa, 0xc1, 0xbb, 0x68, 0x0b, 0x47, 0xeb,
  0x4a, 0xf3, 0x0c, 0x3c, 0x15, 0xab, 0x57, 0xf4, 0x44, 0xeb, 0xc7, 0x01,
  0x34, 0x02, 0x6f, 0xd2, 0x05, 0x50, 0xaa, 0x1a, 0x68, 0xc0, 0x8f, 0x33,
  0x0f, 0xce, 0xc2, 0xc6, 0xa1, 0xe7, 0x93, 0xd6, 0x33, 0xd5, 0x1d, 0xe3,
  0x29, 0x2e, 0x3b, 0xdb, 0xbb, 0xff, 0x07, 0xe2, 0x3f, 0x02, 0x0b, 0xce,
  0xc0, 0x27, 0x4a, 0x28, 0x3c, 0x34, 0xec, 0xbd, 0xfe, 0xf1, 0x21, 0x1e,
  0x94, 0x04, 0x60, 0xa4, 0x1f, 0x97, 0x9c, 0xd8, 0xec, 0x44, 0xe5, 0xa7,
  0xce, 0xe1, 0xdf, 0x03, 0x9e, 0xbe, 0x17, 0xf7, 0xc1, 0xee, 0x58, 0xf6,
  0x1f, 0x3f, 0x2b, 0x00, 0xd6, 0x1d, 0xf5, 0xa6, 0xd5, 0xa8, 0x57, 0xdb,
  0xa7, 0xe2, 0x41, 0xe2, 0x2c, 0x18, 0x83, 0xf1, 0xc8, 0xcc, 0x9e, 0x09,
  0x0b, 0x4d, 0xc8, 0xcf, 0xc1, 0xd8, 0xa1, 0x57, 0xfa, 0x25, 0x4c, 0xe9,
  0x9b, 0xdd, 0xc2, 0xbf, 0xff, 0x67, 0x84, 0xb0, 0xf6, 0x42, 0x2e, 0x2c,
  0x3a, 0x65, 0x5b, 0xec, 0x96, 0x7f, 0x3a, 0xac, 0xc0, 0x5e, 0xa0, 0x5e,
  0xc6, 0xf7, 0x26, 0x5d, 0xc7, 0xe5, 0xdb, 0xf1, 0x3a, 0x46, 0x95, 0x73,
  0xf5, 0x12, 0x13, 0xdf, 0x09, 0xfd, 0xa0, 0x15, 0x1d, 0x64, 0xb1, 0x14,
  0x90, 0xe5, 0x49, 0x54, 0xcc, 0xcc, 0xe1, 0x63, 0x3b, 0x27, 0x40, 0x4e,
  0xc5, 0x46, 0xd0, 0x38, 0x19, 0xfc, 0x56, 0x09, 0x59, 0xd0, 0x8b, 0x4b,
  0xec, 0x0d, 0xd4, 0xdf, 0x1f, 0xf6, 0xff, 0x2d, 0xd1, 0x4e, 0x1b, 0xaa,
  0x00, 0x5e, 0xe9, 0xb1, 0xd9, 0x20, 0xb1, 0x36, 0x1e, 0x5d, 0x0a, 0x2f,
  0x1a, 0xda, 0xce, 0xa1, 0xba, 0xfd, 0xe5, 0x26, 0xc3, 0x26, 0x2f, 0x50,
  0xfe, 0x0a, 0x37, 0x36, 0xd2, 0xfe, 0x40, 0xf3, 0x15, 0x1b, 0xb1, 0xbb,
  0x3c, 0x49, 0x1e, 0xfc, 0xdd, 0x53, 0x13, 0x0d, 0xe5, 0x31, 0xce, 0xd0,
  0x11, 0xda, 0x11, 0xdb, 0xb1, 0x46, 0x05, 0x4a, 0xbd, 0x03, 0x30, 0x32,
  0xd5, 0xca, 0xfe, 0xf9, 0xb6, 0x48, 0xde, 0xd4, 0xb7, 0x32, 0x3a, 0xbf,
  0xdd, 0xe0, 0xf9, 0xa2, 0xe9, 0x0d, 0x1f, 0x9c, 0xcb, 0x14, 0xdd, 0x1b,
  0x25, 0xee, 0x37, 0x4e, 0x33, 0x88, 0xf4, 0x86, 0x27, 0x41, 0x4c, 0xb7,
  0xb8, 0x0d, 0xf4, 0x9c, 0xf9, 0xfb, 0x89, 0x95, 0x02, 0x16, 0xf9, 0x4b,
  0x82, 0xe5, 0x33, 0xa0, 0x40, 0x49, 0x82, 0x19, 0xb5, 0x48, 0xd2, 0x44,
  0x1f, 0xb3, 0x4d, 0x31, 0xd3, 0x49, 0x90, 0xb2, 0xe9, 0x53, 0xdf, 0xeb,
  0xe3, 0x3a, 0x11, 0xff, 0xb8, 0x11, 0xc7, 0x09, 0xd6, 0x33, 0xa9, 0x1e,
  0xb0, 0xc8, 0xc5, 0xf4, 0xe3, 0x48, 0xa8, 0x63, 0x25, 0x59, 0xc7, 0xb9,
  0xc9, 0xe8, 0xdb, 0x52, 0x21, 0x38, 0xfa, 0x04, 0x8e, 0xff, 0xff, 0xff,
  0x04, 0x00, 0x00, 0x00, 0x08, 0x00, 0x00, 0x00, 0xff, 0xff, 0xff, 0xff,
  0xf0, 0x00, 0x00, 0x00, 0xa2, 0xff, 0xff, 0xff, 0x04, 0x00, 0x00, 0x00,
  0x04, 0x00, 0x00, 0x00, 0x13, 0x48, 0x7f, 0xba, 0xb2, 0xff, 0xff, 0xff,
  0x04, 0x00, 0x00, 0x00, 0x40, 0x00, 0x00, 0x00, 0x0a, 0x21, 0xf4, 0x3c,
  0x67, 0xa5, 0xb2, 0x3a, 0x2a, 0xae, 0xdc, 0x3c, 0x86, 0x0b, 0x2f, 0x3b,
  0xd5, 0x1c, 0xc7, 0xbb, 0x1d, 0x00, 0x37, 0xbc, 0x21, 0x39, 0x46, 0x3b,
  0x4c, 0x8b, 0xbf, 0x3c, 0xa6, 0x81, 0x9f, 0xba, 0x61, 0x36, 0xd5, 0x3c,
  0x59, 0xd1, 0x93, 0xbb, 0x33, 0xf1, 0x31, 0xbb, 0x2c, 0xd9, 0x8d, 0x3b,
  0xd0, 0x25, 0xfc, 0xbc, 0x66, 0x98, 0x0b, 0x3d, 0xe9, 0x7a, 0x40, 0x3b,
  0x00, 0x00, 0x06, 0x00, 0x08, 0x00, 0x04, 0x00, 0x06, 0x00, 0x00, 0x00,
  0x04, 0x00, 0x00, 0x00, 0x40, 0x00, 0x00, 0x00, 0x69, 0x75, 0x3c, 0x3e,
  0x2e, 0xe6, 0x4a, 0x3e, 0x06, 0x9c, 0x2c, 0x3e, 0x09, 0xe0, 0x0b, 0xbf,
  0x30, 0xd0, 0xd6, 0xbe, 0xac, 0x66, 0x0d, 0x3f, 0x21, 0x65, 0x03, 0xbf,
  0x87, 0x33, 0x0b, 0x3e, 0x46, 0xcb, 0xe4, 0x3e, 0x3a, 0x46, 0xa9, 0x3e,
  0x8d, 0xab, 0xfd, 0x3e, 0x32, 0x8e, 0xe6, 0x3e, 0x1b, 0xf1, 0x07, 0xbe,
  0xd4, 0xa2, 0x0a, 0xbf, 0x06, 0x2b, 0x9c, 0xbe, 0x3d, 0x4b, 0x05, 0xbd,
  0xb8, 0xfa, 0xff, 0xff, 0xbc, 0xfa, 0xff, 0xff, 0x0f, 0x00, 0x00, 0x00,
  0x4d, 0x4c, 0x49, 0x52, 0x20, 0x43, 0x6f, 0x6e, 0x76, 0x65, 0x72, 0x74,
  0x65, 0x64, 0x2e, 0x00, 0x01, 0x00, 0x00, 0x00, 0x14, 0x00, 0x00, 0x00,
  0x00, 0x00, 0x0e, 0x00, 0x18, 0x00, 0x14, 0x00, 0x10, 0x00, 0x0c, 0x00,
  0x08, 0x00, 0x04, 0x00, 0x0e, 0x00, 0x00, 0x00, 0x14, 0x00, 0x00, 0x00,
  0x1c, 0x00, 0x00, 0x00, 0x0c, 0x01, 0x00, 0x00, 0x10, 0x01, 0x00, 0x00,
  0x14, 0x01, 0x00, 0x00, 0x04, 0x00, 0x00, 0x00, 0x6d, 0x61, 0x69, 0x6e,
  0x00, 0x00, 0x00, 0x00, 0x04, 0x00, 0x00, 0x00, 0xd0, 0x00, 0x00, 0x00,
  0x7c, 0x00, 0x00, 0x00, 0x34, 0x00, 0x00, 0x00, 0x10, 0x00, 0x00, 0x00,
  0x00, 0x00, 0x0a, 0x00, 0x10, 0x00, 0x0c, 0x00, 0x08, 0x00, 0x04, 0x00,
  0x0a, 0x00, 0x00, 0x00, 0x0c, 0x00, 0x00, 0x00, 0x10, 0x00, 0x00, 0x00,
  0x02, 0x00, 0x00, 0x00, 0x01, 0x00, 0x00, 0x00, 0x09, 0x00, 0x00, 0x00,
  0x01, 0x00, 0x00, 0x00, 0x08, 0x00, 0x00, 0x00, 0xca, 0xff, 0xff, 0xff,
  0x14, 0x00, 0x00, 0x00, 0x00, 0x00, 0x00, 0x08, 0x10, 0x00, 0x00, 0x00,
  0x14, 0x00, 0x00, 0x00, 0x01, 0x00, 0x00, 0x00, 0x68, 0xfb, 0xff, 0xff,
  0x01, 0x00, 0x00, 0x00, 0x08, 0x00, 0x00, 0x00, 0x03, 0x00, 0x00, 0x00,
  0x07, 0x00, 0x00, 0x00, 0x01, 0x00, 0x00, 0x00, 0x03, 0x00, 0x00, 0x00,
  0x00, 0x00, 0x0e, 0x00, 0x18, 0x00, 0x14, 0x00, 0x10, 0x00, 0x0c, 0x00,
  0x0b, 0x00, 0x04, 0x00, 0x0e, 0x00, 0x00, 0x00, 0x20, 0x00, 0x00, 0x00,
  0x00, 0x00, 0x00, 0x08, 0x20, 0x00, 0x00, 0x00, 0x24, 0x00, 0x00, 0x00,
  0x01, 0x00, 0x00, 0x00, 0x0c, 0x00, 0x08, 0x00, 0x07, 0x00, 0x00, 0x00,
  0x00, 0x00, 0x06, 0x00, 0x0c, 0x00, 0x00, 0x00, 0x00, 0x00, 0x01, 0x01,
  0x01, 0x00, 0x00, 0x00, 0x07, 0x00, 0x00, 0x00, 0x03, 0x00, 0x00, 0x00,
  0x06, 0x00, 0x00, 0x00, 0x05, 0x00, 0x00, 0x00, 0x02, 0x00, 0x00, 0x00,
  0x00, 0x00, 0x0a, 0x00, 0x0c, 0x00, 0x00, 0x00, 0x08, 0x00, 0x04, 0x00,
  0x0a, 0x00, 0x00, 0x00, 0x08, 0x00, 0x00, 0x00, 0x0c, 0x00, 0x00, 0x00,
  0x01, 0x00, 0x00, 0x00, 0x06, 0x00, 0x00, 0x00, 0x02, 0x00, 0x00, 0x00,
  0x00, 0x00, 0x00, 0x00, 0x04, 0x00, 0x00, 0x00, 0x01, 0x00, 0x00, 0x00,
  0x09, 0x00, 0x00, 0x00, 0x01, 0x00, 0x00, 0x00, 0x00, 0x00, 0x00, 0x00,
  0x0a, 0x00, 0x00, 0x00, 0xc0, 0x03, 0x00, 0x00, 0x5c, 0x03, 0x00, 0x00,
  0xf0, 0x02, 0x00, 0x00, 0x98, 0x02, 0x00, 0x00, 0x4c, 0x02, 0x00, 0x00,
  0xbc, 0x01, 0x00, 0x00, 0x60, 0x01, 0x00, 0x00, 0xd8, 0x00, 0x00, 0x00,
  0x60, 0x00, 0x00, 0x00, 0x04, 0x00, 0x00, 0x00, 0x7e, 0xfc, 0xff, 0xff,
  0x00, 0x00, 0x00, 0x01, 0x14, 0x00, 0x00, 0x00, 0x1c, 0x00, 0x00, 0x00,
  0x1c, 0x00, 0x00, 0x00, 0x0a, 0x00, 0x00, 0x00, 0x34, 0x00, 0x00, 0x00,
  0x02, 0x00, 0x00, 0x00, 0xff, 0xff, 0xff, 0xff, 0x01, 0x00, 0x00, 0x00,
  0x68, 0xfc, 0xff, 0xff, 0x19, 0x00, 0x00, 0x00, 0x53, 0x74, 0x61, 0x74,
  0x65, 0x66, 0x75, 0x6c, 0x50, 0x61, 0x72, 0x74, 0x69, 0x74, 0x69, 0x6f,
  0x6e, 0x65, 0x64, 0x43, 0x61, 0x6c, 0x6c, 0x3a, 0x30, 0x00, 0x00, 0x00,
  0x02, 0x00, 0x00, 0x00, 0x01, 0x00, 0x00, 0x00, 0x01, 0x00, 0x00, 0x00,
  0xd6, 0xfc, 0xff, 0xff, 0x00, 0x00, 0x00, 0x01, 0x14, 0x00, 0x00, 0x00,
  0x1c, 0x00, 0x00, 0x00, 0x1c, 0x00, 0x00, 0x00, 0x09, 0x00, 0x00, 0x00,
  0x50, 0x00, 0x00, 0x00, 0x02, 0x00, 0x00, 0x00, 0xff, 0xff, 0xff, 0xff,
  0x01, 0x00, 0x00, 0x00, 0xc0, 0xfc, 0xff, 0xff, 0x34, 0x00, 0x00, 0x00,
  0x73, 0x65, 0x71, 0x75, 0x65, 0x6e, 0x74, 0x69, 0x61, 0x6c, 0x2f, 0x64,
  0x65, 0x6e, 0x73, 0x65, 0x5f, 0x31, 0x2f, 0x4d, 0x61, 0x74, 0x4d, 0x75,
  0x6c, 0x3b, 0x73, 0x65, 0x71, 0x75, 0x65, 0x6e, 0x74, 0x69, 0x61, 0x6c,
  0x2f, 0x64, 0x65, 0x6e, 0x73, 0x65, 0x5f, 0x31, 0x2f, 0x42, 0x69, 0x61,
  0x73, 0x41, 0x64, 0x64, 0x00, 0x00, 0x00, 0x00, 0x02, 0x00, 0x00, 0x00,
  0x01, 0x00, 0x00, 0x00, 0x01, 0x00, 0x00, 0x00, 0x4a, 0xfd, 0xff, 0xff,
  0x00, 0x00, 0x00, 0x01, 0x14, 0x00, 0x00, 0x00, 0x1c, 0x00, 0x00, 0x00,
  0x1c, 0x00, 0x00, 0x00, 0x08, 0x00, 0x00, 0x00, 0x60, 0x00, 0x00, 0x00,
  0x02, 0x00, 0x00, 0x00, 0xff, 0xff, 0xff, 0xff, 0x10, 0x00, 0x00, 0x00,
  0x34, 0xfd, 0xff, 0xff, 0x46, 0x00, 0x00, 0x00, 0x73, 0x65, 0x71, 0x75,
  0x65, 0x6e, 0x74, 0x69, 0x61, 0x6c, 0x2f, 0x64, 0x65, 0x6e, 0x73, 0x65,
  0x2f, 0x4d, 0x61, 0x74, 0x4d, 0x75, 0x6c, 0x3b, 0x73, 0x65, 0x71, 0x75,
  0x65, 0x6e, 0x74, 0x69, 0x61, 0x6c, 0x2f, 0x64, 0x65, 0x6e, 0x73, 0x65,
  0x2f, 0x52, 0x65, 0x6c, 0x75, 0x3b, 0x73, 0x65, 0x71, 0x75, 0x65, 0x6e,
  0x74, 0x69, 0x61, 0x6c, 0x2f, 0x64, 0x65, 0x6e, 0x73, 0x65, 0x2f, 0x42,
  0x69, 0x61, 0x73, 0x41, 0x64, 0x64, 0x00, 0x00, 0x02, 0x00, 0x00, 0x00,
  0x01, 0x00, 0x00, 0x00, 0x10, 0x00, 0x00, 0x00, 0xce, 0xfd, 0xff, 0xff,
  0x00, 0x00, 0x00, 0x01, 0x14, 0x00, 0x00, 0x00, 0x1c, 0x00, 0x00, 0x00,
  0x1c, 0x00, 0x00, 0x00, 0x07, 0x00, 0x00, 0x00, 0x34, 0x00, 0x00, 0x00,
  0x02, 0x00, 0x00, 0x00, 0xff, 0xff, 0xff, 0xff, 0xf0, 0x00, 0x00, 0x00,
  0xb8, 0xfd, 0xff, 0xff, 0x1a, 0x00, 0x00, 0x00, 0x73, 0x65, 0x71, 0x75,
  0x65, 0x6e, 0x74, 0x69, 0x61, 0x6c, 0x2f, 0x66, 0x6c, 0x61, 0x74, 0x74,
  0x65, 0x6e, 0x2f, 0x52, 0x65, 0x73, 0x68, 0x61, 0x70, 0x65, 0x00, 0x00,
  0x02, 0x00, 0x00, 0x00, 0x01, 0x00, 0x00, 0x00, 0xf0, 0x00, 0x00, 0x00,
  0x8a, 0xff, 0xff, 0xff, 0x00, 0x00, 0x00, 0x01, 0x20, 0x00, 0x00, 0x00,
  0x40, 0x00, 0x00, 0x00, 0x06, 0x00, 0x00, 0x00, 0x00, 0x00, 0x00, 0x09,
  0x50, 0x00, 0x00, 0x00, 0x0c, 0x00, 0x0c, 0x00, 0x00, 0x00, 0x00, 0x00,
  0x08, 0x00, 0x04, 0x00, 0x0c, 0x00, 0x00, 0x00, 0x08, 0x00, 0x00, 0x00,
  0x14, 0x00, 0x00, 0x00, 0x01, 0x00, 0x00, 0x00, 0x00, 0x00, 0x00, 0x00,
  0x00, 0x00, 0x00, 0x00, 0x00, 0x00, 0x00, 0x00, 0x01, 0x00, 0x00, 0x00,
  0x69, 0x48, 0xce, 0x3a, 0x17, 0x00, 0x00, 0x00, 0x73, 0x65, 0x71, 0x75,
  0x65, 0x6e, 0x74, 0x69, 0x61, 0x6c, 0x2f, 0x64, 0x65, 0x6e, 0x73, 0x65,
  0x2f, 0x4d, 0x61, 0x74, 0x4d, 0x75, 0x6c, 0x00, 0x02, 0x00, 0x00, 0x00,
  0x10, 0x00, 0x00, 0x00, 0xf0, 0x00, 0x00, 0x00, 0x00, 0x00, 0x16, 0x00,
  0x1c, 0x00, 0x18, 0x00, 0x17, 0x00, 0x10, 0x00, 0x0c, 0x00, 0x08, 0x00,
  0x00, 0x00, 0x00, 0x00, 0x00, 0x00, 0x07, 0x00, 0x16, 0x00, 0x00, 0x00,
  0x00, 0x00, 0x00, 0x01, 0x14, 0x00, 0x00, 0x00, 0x14, 0x00, 0x00, 0x00,
  0x05, 0x00, 0x00, 0x00, 0x00, 0x00, 0x00, 0x02, 0x28, 0x00, 0x00, 0x00,
  0x90, 0xfe, 0xff, 0xff, 0x18, 0x00, 0x00, 0x00, 0x73, 0x65, 0x71, 0x75,
  0x65, 0x6e, 0x74, 0x69, 0x61, 0x6c, 0x2f, 0x66, 0x6c, 0x61, 0x74, 0x74,
  0x65, 0x6e, 0x2f, 0x43, 0x6f, 0x6e, 0x73, 0x74, 0x00, 0x00, 0x00, 0x00,
  0x01, 0x00, 0x00, 0x00, 0x02, 0x00, 0x00, 0x00, 0x5a, 0xff, 0xff, 0xff,
  0x00, 0x00, 0x00, 0x01, 0x10, 0x00, 0x00, 0x00, 0x10, 0x00, 0x00, 0x00,
  0x04, 0x00, 0x00, 0x00, 0x38, 0x00, 0x00, 0x00, 0xd4, 0xfe, 0xff, 0xff,
  0x29, 0x00, 0x00, 0x00, 0x73, 0x65, 0x71, 0x75, 0x65, 0x6e, 0x74, 0x69,
  0x61, 0x6c, 0x2f, 0x64, 0x65, 0x6e, 0x73, 0x65, 0x5f, 0x31, 0x2f, 0x42,
  0x69, 0x61, 0x73, 0x41, 0x64, 0x64, 0x2f, 0x52, 0x65, 0x61, 0x64, 0x56,
  0x61, 0x72, 0x69, 0x61, 0x62, 0x6c, 0x65, 0x4f, 0x70, 0x00, 0x00, 0x00,
  0x01, 0x00, 0x00, 0x00, 0x01, 0x00, 0x00, 0x00, 0xae, 0xff, 0xff, 0xff,
  0x00, 0x00, 0x00, 0x01, 0x10, 0x00, 0x00, 0x00, 0x10, 0x00, 0x00, 0x00,
  0x03, 0x00, 0x00, 0x00, 0x34, 0x00, 0x00, 0x00, 0x28, 0xff, 0xff, 0xff,
  0x27, 0x00, 0x00, 0x00, 0x73, 0x65, 0x71, 0x75, 0x65, 0x6e, 0x74, 0x69,
  0x61, 0x6c, 0x2f, 0x64, 0x65, 0x6e, 0x73, 0x65, 0x2f, 0x42, 0x69, 0x61,
  0x73, 0x41, 0x64, 0x64, 0x2f, 0x52, 0x65, 0x61, 0x64, 0x56, 0x61, 0x72,
  0x69, 0x61, 0x62, 0x6c, 0x65, 0x4f, 0x70, 0x00, 0x01, 0x00, 0x00, 0x00,
  0x10, 0x00, 0x00, 0x00, 0x00, 0x00, 0x16, 0x00, 0x18, 0x00, 0x14, 0x00,
  0x00, 0x00, 0x10, 0x00, 0x0c, 0x00, 0x08, 0x00, 0x00, 0x00, 0x00, 0x00,
  0x00, 0x00, 0x07, 0x00, 0x16, 0x00, 0x00, 0x00, 0x00, 0x00, 0x00, 0x01,
  0x10, 0x00, 0x00, 0x00, 0x10, 0x00, 0x00, 0x00, 0x02, 0x00, 0x00, 0x00,
  0x28, 0x00, 0x00, 0x00, 0x90, 0xff, 0xff, 0xff, 0x19, 0x00, 0x00, 0x00,
  0x73, 0x65, 0x71, 0x75, 0x65, 0x6e, 0x74, 0x69, 0x61, 0x6c, 0x2f, 0x64,
  0x65, 0x6e, 0x73, 0x65, 0x5f, 0x31, 0x2f, 0x4d, 0x61, 0x74, 0x4d, 0x75,
  0x6c, 0x00, 0x00, 0x00, 0x02, 0x00, 0x00, 0x00, 0x01, 0x00, 0x00, 0x00,
  0x10, 0x00, 0x00, 0x00, 0x00, 0x00, 0x16, 0x00, 0x1c, 0x00, 0x18, 0x00,
  0x00, 0x00, 0x14, 0x00, 0x10, 0x00, 0x0c, 0x00, 0x00, 0x00, 0x00, 0x00,
  0x08, 0x00, 0x07, 0x00, 0x16, 0x00, 0x00, 0x00, 0x00, 0x00, 0x00, 0x01,
  0x14, 0x00, 0x00, 0x00, 0x20, 0x00, 0x00, 0x00, 0x20, 0x00, 0x00, 0x00,
  0x01, 0x00, 0x00, 0x00, 0x3c, 0x00, 0x00, 0x00, 0x02, 0x00, 0x00, 0x00,
  0xff, 0xff, 0xff, 0xff, 0xf0, 0x00, 0x00, 0x00, 0x04, 0x00, 0x04, 0x00,
  0x04, 0x00, 0x00, 0x00, 0x1f, 0x00, 0x00, 0x00, 0x73, 0x65, 0x72, 0x76,
  0x69, 0x6e, 0x67, 0x5f, 0x64, 0x65, 0x66, 0x61, 0x75, 0x6c, 0x74, 0x5f,
  0x66, 0x6c, 0x61, 0x74, 0x74, 0x65, 0x6e, 0x5f, 0x69, 0x6e, 0x70, 0x75,
  0x74, 0x3a, 0x30, 0x00, 0x02, 0x00, 0x00, 0x00, 0x01, 0x00, 0x00, 0x00,
  0xf0, 0x00, 0x00, 0x00, 0x03, 0x00, 0x00, 0x00, 0x40, 0x00, 0x00, 0x00,
  0x20, 0x00, 0x00, 0x00, 0x04, 0x00, 0x00, 0x00, 0xd8, 0xff, 0xff, 0xff,
  0x0e, 0x00, 0x00, 0x00, 0x00, 0x00, 0x00, 0x0e, 0x0c, 0x00, 0x10, 0x00,
  0x0f, 0x00, 0x00, 0x00, 0x08, 0x00, 0x04, 0x00, 0x0c, 0x00, 0x00, 0x00,
  0x09, 0x00, 0x00, 0x00, 0x09, 0x00, 0x00, 0x00, 0x00, 0x00, 0x00, 0x09,
  0x0c, 0x00, 0x0c, 0x00, 0x0b, 0x00, 0x00, 0x00, 0x00, 0x00, 0x04, 0x00,
  0x0c, 0x00, 0x00, 0x00, 0x16, 0x00, 0x00, 0x00, 0x00, 0x00, 0x00, 0x16
};
unsigned int gesture_model_tflite_len = 6000;
